{".": 20072, ",": 20073, "\\": 20074, "0": 20075, "2": 20076, "1": 20077, "'": 20078, "’": 20079, "ş": 20080, ".\\": 20081, ":": 20082, "ç": 20083, "ir": 20084, "ır": 20085, "5": 20086, "ak": 20087, "ik": 20088, "3": 20089, "-": 20090, "i̇": 20091, "?": 20092, "ık": 20093, "ğ": 20094, "4": 20095, "ini": 20096, "9": 20097, "ını": 20098, " (": 20099, "ış": 20100, "ası": 20101, ")": 20102, "ay": 20103, " i̇": 20104, "6": 20105, "ği": 20106, "?\\": 20107, "k": 20108, "8": 20109, "ür": 20110, "ine": 20111, "7": 20112, "isi": 20113, "ur": 20114, "at": 20115, "al": 20116, "arı": 20117, "il": 20118, "ek": 20119, "el": 20120, "ul": 20121, "ığı": 20122, "l": 20123, "am": 20124, "iy": 20125, "ile": 20126, ";": 20127, "esi": 20128, "ıl": 20129, "ili": 20130, "et": 20131, "izi": 20132, "b": 20133, "imi": 20134, "ayı": 20135, "d": 20136, "!": 20137, "unu": 20138, "ama": 20139, "em": 20140, "c": 20141, "ına": 20142, "lan": 20143, "eli": 20144, "uk": 20145, " “": 20146, "len": 20147, "az": 20148, "/": 20149, "g": 20150, "ımı": 20151, "”": 20152, "ğı": 20153, "t": 20154, "aya": 20155, "ük": 20156, "ılı": 20157, "alı": 20158, "bu": 20159, "it": 20160, "\"": 20161, "ül": 20162, "man": 20163, "lam": 20164, "ara": 20165, "ada": 20166, "f": 20167, "ısı": 20168, "ünü": 20169, "ans": 20170, "ör": 20171, "iş": 20172, "ıcı": 20173, "ize": 20174, "ö": 20175, "if": 20176, "kl": 20177, " \"": 20178, "ne": 20179, "ime": 20180, " -": 20181, "ere": 20182, "ip": 20183, "ici": 20184, "…": 20185, "ut": 20186, "ve": 20187, "na": 20188, "eri": 20189, "v": 20190, "ap": 20191, "ire": 20192, "ey": 20193, "yon": 20194, "ıt": 20195, "is": 20196, "h": 20197, "eye": 20198, "cek": 20199, "let": 20200, "ene": 20201, "şı": 20202, "ra": 20203, "una": 20204, "â": 20205, "ğin": 20206, "ca": 20207, "re": 20208, "uş": 20209, "üş": 20210, "şt": 20211, "ab": 20212, "bir": 20213, "za": 20214, "ızı": 20215, "aj": 20216, "p": 20217, "as": 20218, "uy": 20219, "ley": 20220, "öz": 20221, "üt": 20222, "ac": 20223, "lem": 20224, "mam": 20225, "mez": 20226, "üne": 20227, "ıp": 20228, "us": 20229, "ah": 20230, "eti": 20231, "ml": 20232, "ğer": 20233, "maz": 20234, "usu": 20235, "lay": 20236, "ıkl": 20237, "ol": 20238, "ad": 20239, "şim": 20240, "arl": 20241, "ze": 20242, "met": 20243, "men": 20244, "aki": 20245, "ırm": 20246, "•": 20247, "...": 20248, "es": 20249, "gi": 20250, "yet": 20251, "ih": 20252, "kt": 20253, "ede": 20254, "irm": 20255, "ok": 20256, "üy": 20257, "iye": 20258, "ks": 20259, "o": 20260, "uma": 20261, "kin": 20262, "ny": 20263, "ran": 20264, "acı": 20265, "ana": 20266, "eni": 20267, "ren": 20268, "av": 20269, "üs": 20270, "ıs": 20271, "ev": 20272, "(": 20273, "mi": 20274, "ınd": 20275, "ulu": 20276, "î": 20277, "nde": 20278, "ıy": 20279, "eyi": 20280, " –": 20281, "ıml": 20282, "j": 20283, "ari": 20284, "iri": 20285, "fl": 20286, "ret": 20287, "ide": 20288, "eme": 20289, "emi": 20290, "uru": 20291, "ep": 20292, "min": 20293, "eb": 20294, "ürü": 20295, "üğ": 20296, "anı": 20297, "ırı": 20298, "on": 20299, "ığ": 20300, "mem": 20301, "ite": 20302, "ğu": 20303, "end": 20304, "uğ": 20305, "ri": 20306, "res": 20307, "be": 20308, "gin": 20309, "cel": 20310, "edi": 20311, "ıld": 20312, "com": 20313, "ht": 20314, "and": 20315, "nt": 20316, "ceğ": 20317, "ru": 20318, "“": 20319, "ic": 20320, "ed": 20321, "ünd": 20322, "yal": 20323, "ke": 20324, "all": 20325, "eki": 20326, "örü": 20327, "ni": 20328, "!\\": 20329, "ıda": 20330, "son": 20331, "),": 20332, "yan": 20333, "rt": 20334, "lat": 20335, "bil": 20336, "ğe": 20337, "ika": 20338, "nh": 20339, "zi": 20340, "art": 20341, "bet": 20342, "umu": 20343, ":\\": 20344, "ök": 20345, "ant": 20346, "abı": 20347, "çek": 20348, "ng": 20349, "ete": 20350, "erm": 20351, "zen": 20352, "ışı": 20353, "mal": 20354, "ğim": 20355, " '": 20356, "ümü": 20357, " /": 20358, "af": 20359, ".-": 20360, "elt": 20361, "aca": 20362, "atı": 20363, "st": 20364, "ucu": 20365, "ld": 20366, "vi": 20367, "ven": 20368, ".”": 20369, "sin": 20370, "ğa": 20371, "]": 20372, ".\"": 20373, "rı": 20374, "şi": 20375, " %": 20376, "lad": 20377, "fa": 20378, "mad": 20379, "ıc": 20380, "uç": 20381, "ıza": 20382, "ym": 20383, "uc": 20384, "dem": 20385, "gın": 20386, "pl": 20387, "ırl": 20388, ".*": 20389, "nm": 20390, "rak": 20391, "ez": 20392, "ata": 20393, "her": 20394, "mes": 20395, "hi": 20396, "ef": 20397, "aha": 20398, "şk": 20399, "or": 20400, "üsü": 20401, "aba": 20402, "şe": 20403, "url": 20404, "ku": 20405, "las": 20406, "ras": 20407, "uğu": 20408, "ade": 20409, "akt": 20410, "akk": 20411, "ter": 20412, "uml": 20413, "üğü": 20414, "urs": 20415, "id": 20416, "ars": 20417, " ‘": 20418, "ült": 20419, "nd": 20420, " &": 20421, "pe": 20422, "bol": 20423, "rik": 20424, "zer": 20425, "urt": 20426, "km": 20427, "ibi": 20428, "yer": 20429, "iyi": 20430, "alt": 20431, " :": 20432, "ild": 20433, "klı": 20434, "adı": 20435, ").": 20436, "oz": 20437, "şa": 20438, "ib": 20439, "aks": 20440, "ân": 20441, "kes": 20442, ")\\": 20443, "ist": 20444, "fet": 20445, "lg": 20446, "ülü": 20447, "ale": 20448, "mas": 20449, "lim": 20450, "yn": 20451, "gen": 20452, "up": 20453, "ürm": 20454, "ane": 20455, "ön": 20456, "ort": 20457, "geç": 20458, "ind": 20459, "ber": 20460, "arm": 20461, "asa": 20462, "dev": 20463, "sl": 20464, "ram": 20465, "are": 20466, "val": 20467, "ben": 20468, "lev": 20469, "ğlu": 20470, "i̇n": 20471, "led": 20472, "pt": 20473, "os": 20474, "şan": 20475, "rl": 20476, "zel": 20477, "rek": 20478, "yen": 20479, "üp": 20480, "rs": 20481, "baş": 20482, "olu": 20483, "nen": 20484, "asi": 20485, "rim": 20486, "yl": 20487, ".[": 20488, "nek": 20489, "cul": 20490, "üşt": 20491, "ver": 20492, "zuk": 20493, "ard": 20494, "ec": 20495, "att": 20496, "ark": 20497, "om": 20498, "nda": 20499, "şık": 20500, "*": 20501, "ali": 20502, "ati": 20503, "yd": 20504, "ele": 20505, "vg": 20506, "ırd": 20507, "gün": 20508, "ys": 20509, "enc": 20510, "ğan": 20511, "rm": 20512, "oks": 20513, "rel": 20514, "ent": 20515, "do": 20516, "ud": 20517, "van": 20518, "ull": 20519, "kim": 20520, "ğun": 20521, "han": 20522, "bi": 20523, " .": 20524, "nak": 20525, "üd": 20526, "aka": 20527, "ıma": 20528, "reb": 20529, "tt": 20530, "ırs": 20531, "mel": 20532, "rün": 20533, "ıyı": 20534, "gür": 20535, "for": 20536, "lt": 20537, "?,": 20538, "i̇r": 20539, "sen": 20540, "gun": 20541, "cak": 20542, "kat": 20543, "izm": 20544, "ot": 20545, "rem": 20546, "kar": 20547, "net": 20548, "–": 20549, "oll": 20550, "ıç": 20551, "ves": 20552, "per": 20553, "irl": 20554, "cut": 20555, "arg": 20556, "rd": 20557, "irk": 20558, "sk": 20559, "nce": 20560, "ji": 20561, "üml": 20562, "üst": 20563, "dal": 20564, "med": 20565, "ani": 20566, "ro": 20567, "kem": 20568, "rol": 20569, "yar": 20570, "hay": 20571, "uyu": 20572, " ,": 20573, "©": 20574, "gü": 20575, "anç": 20576, "ms": 20577, "tr": 20578, "inc": 20579, "amı": 20580, " ge": 20581, "û": 20582, "aza": 20583, "itt": 20584, "sim": 20585, "ışt": 20586, "day": 20587, "jik": 20588, "raf": 20589, "ast": 20590, "aç": 20591, "şil": 20592, "zet": 20593, "..": 20594, "ray": 20595, "org": 20596, "ona": 20597, "tek": 20598, "şam": 20599, "ner": 20600, "var": 20601, "md": 20602, "set": 20603, "cud": 20604, "ekt": 20605, "öl": 20606, "ub": 20607, "ors": 20608, "ird": 20609, "dim": 20610, "ill": 20611, "ütü": 20612, "ydi": 20613, "üll": 20614, "uzu": 20615, "utt": 20616, "i̇l": 20617, "uki": 20618, "ahi": 20619, "kur": 20620, "fer": 20621, "hte": 20622, "avi": 20623, "ai": 20624, "ral": 20625, "gis": 20626, "+": 20627, "tim": 20628, "yel": 20629, "ket": 20630, "yim": 20631, "fe": 20632, "iki": 20633, "rar": 20634, "anc": 20635, "zz": 20636, "ham": 20637, "yk": 20638, "ob": 20639, "oy": 20640, "gı": 20641, "ifi": 20642, "ece": 20643, " |": 20644, "zu": 20645, "ers": 20646, "rad": 20647, "aze": 20648, "yin": 20649, "kad": 20650, "bre": 20651, "ğın": 20652, "ba": 20653, "ğaz": 20654, "riz": 20655, "yas": 20656, "üks": 20657, "can": 20658, "irt": 20659, "fed": 20660, "hal": 20661, "yun": 20662, "ıll": 20663, "#": 20664, "op": 20665, "‘": 20666, "zul": 20667, "://": 20668, "i̇k": 20669, "eg": 20670, " am": 20671, "bal": 20672, "ilt": 20673, "ond": 20674, "âr": 20675, "les": 20676, "şen": 20677, "lab": 20678, "ens": 20679, " pr": 20680, "x": 20681, "orm": 20682, "fi": 20683, "he": 20684, "tal": 20685, "i̇z": 20686, "ins": 20687, "yg": 20688, "yes": 20689, "ig": 20690, "çok": 20691, "www": 20692, ".(": 20693, "ser": 20694, ".)": 20695, "hur": 20696, "ker": 20697, "nem": 20698, "ha": 20699, "und": 20700, "uda": 20701, "ınt": 20702, "ces": 20703, "ary": 20704, "şu": 20705, "ina": 20706, "np": 20707, "duğ": 20708, "kü": 20709, "ges": 20710, " un": 20711, " üy": 20712, " yo": 20713, " ab": 20714, "iml": 20715, "pek": 20716, " st": 20717, "adi": 20718, "™": 20719, "ikt": 20720, "ult": 20721, "ag": 20722, "zy": 20723, "kon": 20724, "muz": 20725, " pl": 20726, "ert": 20727, "of": 20728, "ola": 20729, "ty": 20730, "i̇m": 20731, "sey": 20732, "vik": 20733, " ?": 20734, "det": 20735, "kte": 20736, "ros": 20737, "dk": 20738, "ett": 20739, "ky": 20740, "vel": 20741, "mer": 20742, "ga": 20743, "eka": 20744, "bey": 20745, "ora": 20746, "hl": 20747, "apt": 20748, "fs": 20749, "ava": 20750, "ıya": 20751, " ku": 20752, "azi": 20753, "int": 20754, "gal": 20755, "yah": 20756, "ced": 20757, "asy": 20758, "çin": 20759, "şik": 20760, "ald": 20761, "aps": 20762, " ti": 20763, "ala": 20764, "ano": 20765, "şte": 20766, "ula": 20767, "mr": 20768, "oru": 20769, "ily": 20770, "ây": 20771, "ns": 20772, "ice": 20773, "ii": 20774, "ilm": 20775, " +": 20776, "fen": 20777, "air": 20778, "ly": 20779, "par": 20780, "zon": 20781, " üz": 20782, "ams": 20783, "jen": 20784, "dah": 20785, "bin": 20786, "rom": 20787, "ira": 20788, " ı": 20789, "sp": 20790, " ib": 20791, "sos": 20792, " if": 20793, " ma": 20794, "sem": 20795, "ats": 20796, "kle": 20797, "ift": 20798, "kal": 20799, "ell": 20800, "neş": 20801, "[": 20802, "i̇y": 20803, " çı": 20804, " ıs": 20805, "gan": 20806, "i̇ş": 20807, "evi": 20808, "yum": 20809, "amp": 20810, "vin": 20811, " ko": 20812, "any": 20813, "°": 20814, "los": 20815, "aye": 20816, "ft": 20817, " so": 20818, "oca": 20819, "ört": 20820, "bek": 20821, "eks": 20822, "rul": 20823, "oc": 20824, "utu": 20825, "_": 20826, "önt": 20827, "kek": 20828, "ase": 20829, "bur": 20830, "cal": 20831, " ra": 20832, "kel": 20833, " ni": 20834, "zar": 20835, "oji": 20836, "ov": 20837, "vur": 20838, "duk": 20839, "aly": 20840, "ami": 20841, "öy": 20842, "ank": 20843, "tes": 20844, "fat": 20845, "urg": 20846, "|": 20847, "ord": 20848, "âm": 20849, "the": 20850, "lin": 20851, "nya": 20852, "biz": 20853, "top": 20854, "bbi": 20855, "kay": 20856, " bü": 20857, "ave": 20858, "ysa": 20859, " #": 20860, "üle": 20861, "va": 20862, "zd": 20863, " …": 20864, "ss": 20865, "ura": 20866, "ems": 20867, " çi": 20868, "taş": 20869, "vet": 20870, "baz": 20871, "web": 20872, " j": 20873, "”,": 20874, "raz": 20875, "ema": 20876, "yaj": 20877, " cm": 20878, "vd": 20879, "lum": 20880, "hum": 20881, "а": 20882, "od": 20883, "fak": 20884, "zin": 20885, "?”": 20886, "cl": 20887, "ney": 20888, "yiz": 20889, "rc": 20890, " tö": 20891, "hat": 20892, "mur": 20893, "gu": 20894, "eng": 20895, "pay": 20896, "rev": 20897, "yat": 20898, "uşt": 20899, "eh": 20900, "str": 20901, "ayi": 20902, "alk": 20903, "irs": 20904, ".,": 20905, ".“": 20906, "bah": 20907, "eş": 20908, "mac": 20909, "lon": 20910, " ic": 20911, "aml": 20912, "td": 20913, "zem": 20914, "gar": 20915, "iti": 20916, "rey": 20917, "pli": 20918, "tım": 20919, "dia": 20920, "bun": 20921, "abi": 20922, "vc": 20923, "mc": 20924, "ery": 20925, "atu": 20926, "örd": 20927, " ba": 20928, "nol": 20929, "cam": 20930, "haf": 20931, " ça": 20932, "aci": 20933, "öm": 20934, "hta": 20935, " km": 20936, "bug": 20937, "ger": 20938, "ia": 20939, "ova": 20940, "san": 20941, "red": 20942, "say": 20943, "uh": 20944, "ive": 20945, "nv": 20946, "ded": 20947, "ksi": 20948, "ubu": 20949, " [": 20950, "als": 20951, "bel": 20952, "₺": 20953, "abd": 20954, "fas": 20955, "oyu": 20956, "uf": 20957, "%": 20958, "urd": 20959, " çö": 20960, "liy": 20961, "uan": 20962, "yo": 20963, "kun": 20964, "nik": 20965, "dek": 20966, "cr": 20967, "ski": 20968, "mir": 20969, "unc": 20970, "]\\": 20971, "ori": 20972, "üre": 20973, "lal": 20974, "tem": 20975, "gö": 20976, "opy": 20977, "arj": 20978, "cum": 20979, "miy": 20980, "oku": 20981, "ing": 20982, "idd": 20983, "ets": 20984, "hir": 20985, "psi": 20986, "iks": 20987, "der": 20988, " ef": 20989, " ©": 20990, " nö": 20991, "je": 20992, "ils": 20993, "uku": 20994, "oda": 20995, "rah": 20996, "fta": 20997, "pr": 20998, "yam": 20999, "kol": 21000, "hen": 21001, "elp": 21002, "lo": 21003, "cin": 21004, "nr": 21005, "fus": 21006, "pro": 21007, "era": 21008, "bas": 21009, "his": 21010, ",\\": 21011, "öt": 21012, "tik": 21013, "tin": 21014, "bar": 21015, " hi": 21016, " kl": 21017, "eci": 21018, "por": 21019, "ela": 21020, "iv": 21021, "rk": 21022, "ima": 21023, "ask": 21024, " â": 21025, "dam": 21026, "kö": 21027, "afa": 21028, "rit": 21029, "har": 21030, "ias": 21031, "bay": 21032, "uya": 21033, "bo": 21034, "osu": 21035, "rat": 21036, "viz": 21037, "ydı": 21038, "..\\": 21039, "=": 21040, "sta": 21041, " yu": 21042, "aş": 21043, "kiy": 21044, " =": 21045, "pa": 21046, "uar": 21047, " x": 21048, ".'": 21049, "kk": 21050, "nc": 21051, "tom": 21052, "fil": 21053, "mit": 21054, "bü": 21055, "ged": 21056, "­": 21057, ":“": 21058, "bes": 21059, "vim": 21060, "kas": 21061, "ife": 21062, "est": 21063, "tam": 21064, "ifa": 21065, "to": 21066, "âh": 21067, "tar": 21068, "erd": 21069, "deb": 21070, "apa": 21071, "eta": 21072, "onu": 21073, "ürk": 21074, "ims": 21075, "):": 21076, "ahh": 21077, "nas": 21078, "bul": 21079, "iya": 21080, "kis": 21081, "ij": 21082, "esu": 21083, "arc": 21084, "öre": 21085, "\",": 21086, "ll": 21087, "udu": 21088, ".:": 21089, "sun": 21090, "w": 21091, "şey": 21092, "has": 21093, "old": 21094, "zan": 21095, "cil": 21096, "dar": 21097, "div": 21098, "sev": 21099, "tak": 21100, " >": 21101, "vek": 21102, "og": 21103, "dd": 21104, "oya": 21105, "ürt": 21106, "ess": 21107, "api": 21108, "ril": 21109, "·": 21110, "tas": 21111, "vm": 21112, "phe": 21113, "imd": 21114, "üb": 21115, " la": 21116, "?\"": 21117, "tuk": 21118, "bak": 21119, "zes": 21120, "ls": 21121, "yuk": 21122, "ang": 21123, "gaz": 21124, "igi": 21125, "bat": 21126, "tic": 21127, "isa": 21128, "vk": 21129, "sat": 21130, "kli": 21131, "abb": 21132, "ost": 21133, "lk": 21134, "nlü": 21135, " pa": 21136, "ko": 21137, "dak": 21138, "fli": 21139, "hes": 21140, "kah": 21141, "br": 21142, " pü": 21143, "cad": 21144, "yap": 21145, "@": 21146, "ork": 21147, "haz": 21148, "vey": 21149, "so": 21150, "ris": 21151, "ste": 21152, "pet": 21153, "gz": 21154, "gah": 21155, "eff": 21156, "ink": 21157, "ynı": 21158, "add": 21159, " mm": 21160, "its": 21161, " w": 21162, " gr": 21163, "rin": 21164, "tid": 21165, "th": 21166, "one": 21167, "uca": 21168, "ço": 21169, "âl": 21170, "esc": 21171, "ese": 21172, "amo": 21173, "fr": 21174, "zg": 21175, "›": 21176, " (“": 21177, "oj": 21178, ".•": 21179, "evu": 21180, "dik": 21181, "uka": 21182, "pu": 21183, "ruf": 21184, "ps": 21185, "gs": 21186, "dat": 21187, "irc": 21188, "sab": 21189, " sp": 21190, "ât": 21191, "bim": 21192, "nan": 21193, "enk": 21194, "tti": 21195, "din": 21196, "vil": 21197, "nal": 21198, "giz": 21199, "mu": 21200, "ame": 21201, "fan": 21202, "][": 21203, "yna": 21204, "isy": 21205, "ann": 21206, "üh": 21207, "chp": 21208, "hin": 21209, "tta": 21210, "rg": 21211, "erv": 21212, "utf": 21213, "bed": 21214, "pol": 21215, "pk": 21216, "”)": 21217, "dij": 21218, "arb": 21219, "kor": 21220, "sig": 21221, ">": 21222, "&": 21223, "sil": 21224, "io": 21225, "hem": 21226, "lç": 21227, "rij": 21228, "mut": 21229, "!”": 21230, "eyn": 21231, ":\"": 21232, "des": 21233, "eke": 21234, "yse": 21235, " aj": 21236, " •": 21237, "gel": 21238, "erc": 21239, "vas": 21240, "rus": 21241, "bon": 21242, "alg": 21243, "ahs": 21244, "tab": 21245, " si": 21246, "ita": 21247, "nu": 21248, " )": 21249, "eda": 21250, "bn": 21251, "udi": 21252, ";\\": 21253, "ado": 21254, "ts": 21255, " rö": 21256, "ays": 21257, "lis": 21258, "ilo": 21259, "\"\\": 21260, "kaç": 21261, "dep": 21262, "ike": 21263, "''": 21264, "fin": 21265, "soy": 21266, "lus": 21267, "kit": 21268, "ron": 21269, "arp": 21270, "ian": 21271, "nes": 21272, "ahl": 21273, "els": 21274, "hil": 21275, "zed": 21276, "ore": 21277, "jes": 21278, " ün": 21279, " af": 21280, "̧": 21281, "pat": 21282, "ie": 21283, "ug": 21284, "̈": 21285, "prü": 21286, "ph": 21287, "bis": 21288, "uri": 21289, "key": 21290, "gov": 21291, "mec": 21292, "isk": 21293, "ilg": 21294, "kap": 21295, "zik": 21296, "köy": 21297, "»": 21298, "obi": 21299, "dol": 21300, "urm": 21301, "lde": 21302, "mla": 21303, "tl": 21304, "arn": 21305, "ate": 21306, " uk": 21307, "uv": 21308, "dr": 21309, "kün": 21310, "mm": 21311, "jan": 21312, "mah": 21313, "ayd": 21314, " gl": 21315, "nl": 21316, "bb": 21317, "eps": 21318, "ses": 21319, "ole": 21320, "ust": 21321, "ism": 21322, "sam": 21323, "👉": 21324, "ned": 21325, "mn": 21326, "not": 21327, "ام": 21328, "ule": 21329, "وس": 21330, "bit": 21331, "تع": 21332, "ريف": 21333, "في": 21334, "gul": 21335, "iba": 21336, "ass": 21337, "rum": 21338, "ibe": 21339, "fon": 21340, "ony": 21341, "̇": 21342, "esp": 21343, "dok": 21344, "yak": 21345, "ruk": 21346, "oid": 21347, "ton": 21348, "ons": 21349, "pi": 21350, "boy": 21351, "dum": 21352, "fu": 21353, ",-": 21354, "iat": 21355, "öp": 21356, "eth": 21357, "aft": 21358, "tat": 21359, "upl": 21360, "tc": 21361, " va": 21362, "odu": 21363, "iny": 21364, "him": 21365, "nel": 21366, "❓": 21367, "dey": 21368, "vam": 21369, "bad": 21370, "zas": 21371, "sav": 21372, "oh": 21373, "riy": 21374, "е": 21375, "yr": 21376, "hr": 21377, "meh": 21378, " ai": 21379, "kaz": 21380, "zk": 21381, " pc": 21382, "uld": 21383, "tv": 21384, "fte": 21385, "poz": 21386, "aro": 21387, "rep": 21388, "pop": 21389, "ure": 21390, "amm": 21391, "dil": 21392, "`": 21393, "lm": 21394, "nat": 21395, " om": 21396, "sor": 21397, "fam": 21398, "rap": 21399, "rab": 21400, "izz": 21401, "hn": 21402, "ila": 21403, "zal": 21404, "ao": 21405, "fö": 21406, "tor": 21407, "ved": 21408, "hak": 21409, "vir": 21410, "ady": 21411, "ino": 21412, ",\"": 21413, " »": 21414, "tm": 21415, "ody": 21416, " sk": 21417, "lac": 21418, "asm": 21419, "mod": 21420, " my": 21421, "yrı": 21422, "sit": 21423, "yay": 21424, ".’": 21425, "rü": 21426, "kab": 21427, "pm": 21428, "cc": 21429, ").\\": 21430, "hz": 21431, "ayn": 21432, " dk": 21433, "çal": 21434, "erk": 21435, "kn": 21436, "zir": 21437, "mar": 21438, "fik": 21439, "dad": 21440, "kom": 21441, "no": 21442, "hp": 21443, "hs": 21444, "nb": 21445, "ية": 21446, "rop": 21447, "ikl": 21448, "cen": 21449, "omi": 21450, "ips": 21451, "sis": 21452, "dy": 21453, "ial": 21454, "ont": 21455, "ch": 21456, "oli": 21457, "yt": 21458, "kez": 21459, ".–": 21460, "kul": 21461, "ipl": 21462, "atm": 21463, "sm": 21464, "hel": 21465, "sv": 21466, " wi": 21467, "vr": 21468, "örm": 21469, "sol": 21470, "kok": 21471, ",”": 21472, "hk": 21473, " ep": 21474, "tis": 21475, "!\"": 21476, "rob": 21477, " rü": 21478, "yni": 21479, " gb": 21480, "pan": 21481, "avy": 21482, "zur": 21483, "ff": 21484, "iss": 21485, " oc": 21486, "naf": 21487, "rme": 21488, "pal": 21489, "gl": 21490, " sû": 21491, " eb": 21492, "—": 21493, " ​​": 21494, "ilk": 21495, "kum": 21496, "kti": 21497, "ica": 21498, "sah": 21499, "ihn": 21500, "oka": 21501, " ”": 21502, "ikr": 21503, "kus": 21504, "rib": 21505, " *": 21506, " lo": 21507, "®": 21508, "rod": 21509, "azz": 21510, "’’": 21511, "sg": 21512, "ked": 21513, "fü": 21514, "ças": 21515, "amb": 21516, "avg": 21517, "nam": 21518, ")*": 21519, "omb": 21520, "co": 21521, "ua": 21522, "cre": 21523, "lif": 21524, "ong": 21525, "mat": 21526, "uni": 21527, "new": 21528, "ube": 21529, "loj": 21530, " ob": 21531, "kg": 21532, " tb": 21533, "usa": 21534, " ag": 21535, "rec": 21536, "my": 21537, "bli": 21538, "ido": 21539, "kir": 21540, "hu": 21541, "cev": 21542, " tr": 21543, "●": 21544, "lor": 21545, "dos": 21546, "örn": 21547, "oly": 21548, " ''": 21549, "err": 21550, "by": 21551, "?-": 21552, "run": 21553, "ain": 21554, "ato": 21555, "sh": 21556, "faz": 21557, "cz": 21558, "lit": 21559, "pon": 21560, "ena": 21561, "dav": 21562, "zo": 21563, "cra": 21564, "eko": 21565, "ion": 21566, "ix": 21567, "cm": 21568, "ury": 21569, "mik": 21570, "dv": 21571, "ito": 21572, "ry": 21573, "ely": 21574, ",“": 21575, "zt": 21576, "mo": 21577, "opt": 21578, " we": 21579, "pla": 21580, "ops": 21581, "vu": 21582, "ail": 21583, "ted": 21584, "ho": 21585, "für": 21586, "don": 21587, "anz": 21588, " kv": 21589, " pu": 21590, "…”": 21591, "uba": 21592, "aff": 21593, "fal": 21594, " fu": 21595, "rok": 21596, "ida": 21597, "jim": 21598, "ols": 21599, "aat": 21600, "ait": 21601, "în": 21602, " fl": 21603, "abe": 21604, "uta": 21605, "sn": 21606, ")'": 21607, "​": 21608, "hab": 21609, " $": 21610, "uza": 21611, " !": 21612, " 🙂": 21613, " .\\": 21614, "afi": 21615, "tte": 21616, "eya": 21617, " :)": 21618, "rz": 21619, "gat": 21620, "к": 21621, " ci": 21622, "şiv": 21623, "ote": 21624, "bl": 21625, " ..": 21626, " hd": 21627, "<": 21628, "itm": 21629, "ipi": 21630, "ê": 21631, "'\\": 21632, "̆": 21633, "dom": 21634, "muh": 21635, "urb": 21636, "yy": 21637, "zat": 21638, "mag": 21639, "лий": 21640, " я": 21641, "зы": 21642, "pik": 21643, "tel": 21644, "oni": 21645, "rud": 21646, "jin": 21647, "ity": 21648, " ps": 21649, "rne": 21650, "ath": 21651, "ier": 21652, ")’": 21653, "о": 21654, "в": 21655, "kam": 21656, "uls": 21657, "bab": 21658, "',": 21659, "mis": 21660, "leb": 21661, "uts": 21662, "amy": 21663, " lü": 21664, "-(": 21665, "ck": 21666, "rip": 21667, "hed": 21668, "til": 21669, "lah": 21670, "gb": 21671, "zak": 21672, "şti": 21673, "q": 21674, "hid": 21675, "ivi": 21676, "ero": 21677, "hep": 21678, "dun": 21679, "pas": 21680, "kp": 21681, "pte": 21682, "erg": 21683, "age": 21684, "⁢": 21685, "tay": 21686, "ect": 21687, "кий": 21688, " ту": 21689, "рец": 21690, "ex": 21691, ");": 21692, "ikk": 21693, "ban": 21694, "nar": 21695, "we": 21696, " qr": 21697, " —": 21698, "ahu": 21699, "kop": 21700, "cav": 21701, "hü": 21702, "pta": 21703, ".…": 21704, "️": 21705, "fes": 21706, " q": 21707, "vac": 21708, "def": 21709, "hit": 21710, "fek": 21711, ".#": 21712, "diy": 21713, ":-": 21714, "iyo": 21715, "mun": 21716, "⁤": 21717, "ory": 21718, "igo": 21719, "iko": 21720, "atl": 21721, "iry": 21722, "lil": 21723, "pot": 21724, ",…": 21725, "bor": 21726, " °": 21727, "au": 21728, "aja": 21729, "jet": 21730, " ·": 21731, "lig": 21732, "ibr": 21733, "opi": 21734, "bik": 21735, "emm": 21736, "ox": 21737, "het": 21738, "naz": 21739, "ulo": 21740, " **": 21741, "uro": 21742, "tah": 21743, "$": 21744, "seo": 21745, "yip": 21746, ".\"\"": 21747, "”.": 21748, "cas": 21749, "unt": 21750, "hav": 21751, " mp": 21752, "kh": 21753, "üng": 21754, "çar": 21755, " na": 21756, "mb": 21757, " go": 21758, "jis": 21759, "gam": 21760, "fut": 21761, "iva": 21762, "gay": 21763, " ca": 21764, "sep": 21765, "ebi": 21766, "tb": 21767, "car": 21768, "ehr": 21769, "].": 21770, "yok": 21771, "epy": 21772, ")-": 21773, "cem": 21774, " lâ": 21775, "jit": 21776, "yaf": 21777, "aky": 21778, "efi": 21779, "fab": 21780, "kr": 21781, "rot": 21782, "lib": 21783, "das": 21784, "rut": 21785, "go": 21786, "ium": 21787, "fk": 21788, "ds": 21789, " gu": 21790, "sub": 21791, "nk": 21792, "roz": 21793, "ble": 21794, "aa": 21795, "lav": 21796, "ums": 21797, "yre": 21798, "ysi": 21799, "olo": 21800, "->": 21801, "cus": 21802, "mon": 21803, "etl": 21804, "lge": 21805, "çay": 21806, "seb": 21807, "ae": 21808, "cb": 21809, "jon": 21810, "rup": 21811, "edd": 21812, "otu": 21813, "buy": 21814, "toy": 21815, "klu": 21816, "ack": 21817, "apk": 21818, " fü": 21819, " (%": 21820, "cer": 21821, "lc": 21822, "oro": 21823, "rof": 21824, "tap": 21825, "aw": 21826, "bk": 21827, "sym": 21828, "jel": 21829, "img": 21830, "emb": 21831, "ref": 21832, "iar": 21833, "kot": 21834, "nf": 21835, "koz": 21836, "avr": 21837, "hm": 21838, "lag": 21839, "git": 21840, " bl": 21841, "âns": 21842, " ;": 21843, "zn": 21844, "use": 21845, " mâ": 21846, "zun": 21847, "dis": 21848, " sh": 21849, "oma": 21850, " aa": 21851, " mo": 21852, "aan": 21853, "iza": 21854, "une": 21855, "ew": 21856, "pit": 21857, "ien": 21858, "sad": 21859, "ebb": 21860, "bür": 21861, "tut": 21862, "**": 21863, "bot": 21864, "kv": 21865, "✔": 21866, "opl": 21867, "mus": 21868, "sur": 21869, "tok": 21870, "hd": 21871, "zum": 21872, "dp": 21873, "ish": 21874, "tev": 21875, "alo": 21876, "mor": 21877, " oz": 21878, "blr": 21879, "\".": 21880, "iev": 21881, "mil": 21882, "del": 21883, "gr": 21884, "fit": 21885, "oba": 21886, "zc": 21887, "yz": 21888, "you": 21889, "’,": 21890, " tâ": 21891, "gur": 21892, "pil": 21893, " ‘’": 21894, "ose": 21895, "osy": 21896, "sd": 21897, "iro": 21898, "pey": 21899, "she": 21900, "çam": 21901, "öv": 21902, "geb": 21903, " ap": 21904, "vpn": 21905, "ipo": 21906, "?'": 21907, "bm": 21908, "zus": 21909, "cep": 21910, "uns": 21911, "ou": 21912, "zm": 21913, "umb": 21914, "nis": 21915, "oti": 21916, "pc": 21917, "cun": 21918, " bb": 21919, "imb": 21920, "abo": 21921, "×": 21922, "uve": 21923, " @": 21924, "umi": 21925, "ahr": 21926, "ico": 21927, "--": 21928, "é": 21929, " fe": 21930, "jde": 21931, "oto": 21932, "²": 21933, "ako": 21934, "kül": 21935, "sir": 21936, "unk": 21937, "ump": 21938, "cac": 21939, " ’": 21940, "hey": 21941, "tum": 21942, "off": 21943, "far": 21944, "eny": 21945, "imm": 21946, "db": 21947, "anj": 21948, "ax": 21949, "tp": 21950, "pam": 21951, "hb": 21952, "saf": 21953, "had": 21954, "fun": 21955, " vâ": 21956, "✅": 21957, "mig": 21958, "ugu": 21959, "sar": 21960, "öh": 21961, " uv": 21962, "ue": 21963, ".),": 21964, " ss": 21965, "enz": 21966, "yad": 21967, "eft": 21968, "bec": 21969, "urk": 21970, "***": 21971, "udo": 21972, "isl": 21973, "log": 21974, "mt": 21975, "qu": 21976, "➥": 21977, "tk": 21978, "zah": 21979, "enn": 21980, "kov": 21981, "ius": 21982, "vol": 21983, "fez": 21984, "nev": 21985, "lez": 21986, "num": 21987, "kyl": 21988, "gm": 21989, " kk": 21990, "sss": 21991, "bih": 21992, " (@": 21993, "avu": 21994, "con": 21995, "ow": 21996, "abl": 21997, "ash": 21998, " →": 21999, " ro": 22000, " cv": 22001, "urn": 22002, "vs": 22003, "inn": 22004, "cay": 22005, "nov": 22006, "ual": 22007, "ott": 22008, "gas": 22009, "lya": 22010, "vat": 22011, "ûr": 22012, "?:": 22013, "cd": 22014, "uly": 22015, "lex": 22016, "edu": 22017, "ux": 22018, "pg": 22019, " yi": 22020, ".<": 22021, "ûn": 22022, "azs": 22023, "sed": 22024, "pti": 22025, "emp": 22026, "avl": 22027, "zor": 22028, "mp": 22029, "ota": 22030, "ruz": 22031, "fir": 22032, "mid": 22033, "«": 22034, "ln": 22035, "fry": 22036, "out": 22037, "uss": 22038, " bt": 22039, "agi": 22040, "bez": 22041, "ace": 22042, "neg": 22043, " а": 22044, "viv": 22045, "üse": 22046, "ipt": 22047, "tf": 22048, "iii": 22049, "♦": 22050, " kw": 22051, "”(": 22052, "itz": 22053, "tn": 22054, "….": 22055, "ies": 22056, "hra": 22057, "upa": 22058, "izy": 22059, "rid": 22060, "edy": 22061, "uj": 22062, "elm": 22063, "mol": 22064, "ruh": 22065, "´": 22066, "bod": 22067, "reg": 22068, "!..": 22069, "öd": 22070, "ekk": 22071, "muy": 22072, "tec": 22073, "\")": 22074, "nim": 22075, "cis": 22076, "ook": 22077, " dj": 22078, "sy": 22079, "mot": 22080, "imy": 22081, "ern": 22082, "orn": 22083, "gem": 22084, "vad": 22085, " :\\": 22086, "orb": 22087, "],": 22088, "ith": 22089, "gus": 22090, "oke": 22091, "![": 22092, "pdf": 22093, "nor": 22094, "-)": 22095, "ael": 22096, "bus": 22097, "aim": 22098, "ich": 22099, ")\"": 22100, "vre": 22101, "nec": 22102, "ude": 22103, "hik": 22104, "gir": 22105, "eld": 22106, "vec": 22107, "atk": 22108, " lg": 22109, "zü": 22110, " li": 22111, "sko": 22112, "rez": 22113, "kz": 22114, "aty": 22115, "sus": 22116, "max": 22117, "nit": 22118, "zam": 22119, "ode": 22120, "olt": 22121, " ]": 22122, "ung": 22123, "ja": 22124, "ple": 22125, "get": 22126, "uli": 22127, "zl": 22128, "bs": 22129, "ibu": 22130, "sik": 22131, "omu": 22132, ":[": 22133, "vay": 22134, "pak": 22135, "got": 22136, "mim": 22137, " «": 22138, "nil": 22139, "mos": 22140, "gri": 22141, "lep": 22142, "cg": 22143, "?”,": 22144, "sul": 22145, "utm": 22146, "raj": 22147, "ric": 22148, "rog": 22149, "ify": 22150, "che": 22151, "fol": 22152, "ä": 22153, "→": 22154, "ozu": 22155, ".]": 22156, "our": 22157, "cs": 22158, " (\"": 22159, "zil": 22160, "kut": 22161, "ee": 22162, "ach": 22163, "pir": 22164, ")(": 22165, " ❤️": 22166, "odo": 22167, "ju": 22168, "zip": 22169, "vy": 22170, ")–": 22171, "))": 22172, "dt": 22173, "flu": 22174, ",[": 22175, "mob": 22176, "ulk": 22177, "nw": 22178, "ksa": 22179, "osa": 22180, "rf": 22181, "arr": 22182, "üte": 22183, "po": 22184, ".—": 22185, "hip": 22186, "isn": 22187, "َ": 22188, "bid": 22189, "sc": 22190, " zu": 22191, "usi": 22192, "sha": 22193, "lob": 22194, "uto": 22195, ":)": 22196, "uhu": 22197, "pin": 22198, "rma": 22199, "win": 22200, "±": 22201, "fla": 22202, "usb": 22203, "⁠": 22204, "tip": 22205, "uva": 22206, "mk": 22207, "bt": 22208, "omp": 22209, "azd": 22210, "ovo": 22211, " ök": 22212, "pos": 22213, " €": 22214, "zek": 22215, "ios": 22216, "ahn": 22217, "anh": 22218, "how": 22219, "enb": 22220, " iq": 22221, "yp": 22222, "vis": 22223, "hun": 22224, "ake": 22225, "pp": 22226, "âme": 22227, "¬": 22228, "wag": 22229, "oo": 22230, "nav": 22231, "roy": 22232, "lla": 22233, "âne": 22234, "ui": 22235, "sap": 22236, " 🙏": 22237, "ütt": 22238, "lub": 22239, "iel": 22240, "\"\"": 22241, "yed": 22242, "ape": 22243, " dc": 22244, "big": 22245, "vid": 22246, " <": 22247, "xp": 22248, " fk": 22249, ":(": 22250, "nez": 22251, "yil": 22252, "fel": 22253, "ove": 22254, "ago": 22255, ".’’": 22256, "hib": 22257, "tit": 22258, " 🤔": 22259, "lol": 22260, "cv": 22261, "ais": 22262, "cat": 22263, "ând": 22264, "rav": 22265, "nad": 22266, "üns": 22267, ".).": 22268, "eba": 22269, "muc": 22270, "but": 22271, "esk": 22272, "coo": 22273, "dec": 22274, "nus": 22275, "bra": 22276, " sc": 22277, " ()": 22278, "?“": 22279, ")”": 22280, " ec": 22281, " ty": 22282, "\"(": 22283, "vod": 22284, "ulg": 22285, "fix": 22286, "osk": 22287, "cp": 22288, "bag": 22289, "arf": 22290, "bla": 22291, "bos": 22292, "nta": 22293, "fiz": 22294, "bp": 22295, "app": 22296, " bd": 22297, "kre": 22298, "bc": 22299, " og": 22300, "kod": 22301, " ‘‘": 22302, "ُ": 22303, " hp": 22304, ".”[": 22305, "fc": 22306, " mb": 22307, " câ": 22308, "ype": 22309, "cid": 22310, ":**": 22311, "iso": 22312, "nn": 22313, "odi": 22314, "som": 22315, "ptt": 22316, "ock": 22317, "alm": 22318, "iot": 22319, "dc": 22320, "low": 22321, "ct": 22322, "ome": 22323, "?’": 22324, "imo": 22325, "��": 22326, "⁣": 22327, ")^(": 22328, "aku": 22329, "vap": 22330, "??": 22331, "acc": 22332, "orf": 22333, " mr": 22334, "gre": 22335, "!)": 22336, " ky": 22337, "gro": 22338, "azo": 22339, "lod": 22340, "own": 22341, "vak": 22342, "fle": 22343, "bö": 22344, " ex": 22345, "fig": 22346, "pap": 22347, "ahy": 22348, "box": 22349, "ous": 22350, "ige": 22351, "act": 22352, "nst": 22353, " ej": 22354, "ozy": 22355, "zey": 22356, "sql": 22357, " --": 22358, "iet": 22359, "umm": 22360, ";-": 22361, "pem": 22362, "=\"": 22363, "jed": 22364, " î": 22365, "uyo": 22366, ">>": 22367, ",(": 22368, "dig": 22369, "pre": 22370, "&#": 22371, "sch": 22372, "‍": 22373, ".​": 22374, "bru": 22375, " {": 22376, "nut": 22377, "mz": 22378, ".;": 22379, "ea": 22380, "nye": 22381, "fo": 22382, "jem": 22383, "wi": 22384, "ِ": 22385, "aga": 22386, "ə": 22387, "âni": 22388, "maj": 22389, " ~": 22390, "ume": 22391, "lok": 22392, "nok": 22393, "nai": 22394, "amd": 22395, "§": 22396, "hy": 22397, "fra": 22398, "ear": 22399, "ürn": 22400, "!'": 22401, "zca": 22402, "isu": 22403, "muk": 22404, "wp": 22405, "df": 22406, "pen": 22407, "iol": 22408, "ã": 22409, "asp": 22410, "inl": 22411, "iga": 22412, "nur": 22413, "nap": 22414, "?)": 22415, "‘’": 22416, "suy": 22417, ")[": 22418, "fre": 22419, "slu": 22420, "efa": 22421, "‘‘": 22422, "gib": 22423, "noz": 22424, "buz": 22425, "eve": 22426, "öll": 22427, "osp": 22428, "zni": 22429, "tez": 22430, "onc": 22431, "bud": 22432, "rac": 22433, "emy": 22434, "hot": 22435, " [#": 22436, "pul": 22437, "dna": 22438, "iem": 22439, " ht": 22440, "lid": 22441, "inh": 22442, "}": 22443, " dh": 22444, "ût": 22445, "iq": 22446, "leg": 22447, "tag": 22448, "🤬": 22449, " rt": 22450, "cit": 22451, "ads": 22452, "?..": 22453, "spf": 22454, "idy": 22455, "iam": 22456, "meg": 22457, "kd": 22458, "/\\": 22459, "ԁ": 22460, "\":": 22461, "ool": 22462, " !\\": 22463, "💬": 22464, "vo": 22465, "heb": 22466, "mle": 22467, "baa": 22468, "esa": 22469, " ±": 22470, "zim": 22471, "ʼ": 22472, "mom": 22473, "tex": 22474, "kaf": 22475, "fac": 22476, "gut": 22477, "oe": 22478, "hf": 22479, " op": 22480, "vez": 22481, "^": 22482, "yll": 22483, " îm": 22484, "👇": 22485, "🏻": 22486, "ict": 22487, "ids": 22488, "sec": 22489, "rtl": 22490, "sez": 22491, "eva": 22492, " е": 22493, " hö": 22494, "vit": 22495, "adr": 22496, "asu": 22497, "ukk": 22498, "fur": 22499, "!!!": 22500, "zai": 22501, "nx": 22502, "kb": 22503, "ute": 22504, "kau": 22505, "kak": 22506, "oi": 22507, "ske": 22508, " )\\": 22509, "gy": 22510, "sov": 22511, "++": 22512, "exe": 22513, "dll": 22514, "ped": 22515, "abu": 22516, "way": 22517, "tun": 22518, " sd": 22519, "kob": 22520, "imc": 22521, "uti": 22522, "esh": 22523, "nö": 22524, " lt": 22525, "pad": 22526, "lb": 22527, "ext": 22528, "./": 22529, ".''": 22530, "**:": 22531, "qr": 22532, "bd": 22533, "+-": 22534, "cor": 22535, "ÿ": 22536, "inf": 22537, "utc": 22538, "cim": 22539, "elo": 22540, "ics": 22541, " 👇": 22542, "dor": 22543, "fy": 22544, "fad": 22545, "~": 22546, "ush": 22547, "ety": 22548, "gey": 22549, "nba": 22550, "maa": 22551, "oth": 22552, "wa": 22553, " \\": 22554, ".|": 22555, "bem": 22556, "öld": 22557, "(“": 22558, "rov": 22559, "pel": 22560, "hh": 22561, " mh": 22562, "tw": 22563, " ‌": 22564, " ts": 22565, "vt": 22566, "pri": 22567, "↑": 22568, "tsy": 22569, "rif": 22570, "vic": 22571, "pez": 22572, "!!": 22573, "ْ": 22574, "plo": 22575, "jer": 22576, "{": 22577, "ipe": 22578, "dn": 22579, "◊": 22580, "gh": 22581, "tle": 22582, "öne": 22583, "akh": 22584, "uo": 22585, "zis": 22586, "olf": 22587, "bam": 22588, "jd": 22589, "sr": 22590, "neb": 22591, "ope": 22592, "zol": 22593, "lot": 22594, " sn": 22595, "ono": 22596, "hor": 22597, " 😊": 22598, "ful": 22599, "uer": 22600, " vd": 22601, "uny": 22602, "alp": 22603, "cla": 22604, "ā": 22605, " ui": 22606, "fem": 22607, " vr": 22608, "′": 22609, "alu": 22610, "wo": 22611, "beg": 22612, " hy": 22613, "bep": 22614, "ovi": 22615, "uko": 22616, "lul": 22617, "opo": 22618, "fz": 22619, "ssd": 22620, "ayy": 22621, "yli": 22622, "suc": 22623, "gig": 22624, "riv": 22625, "vah": 22626, "å": 22627, "lip": 22628, " lu": 22629, "……": 22630, "txt": 22631, "obu": 22632, "": 22633, "egi": 22634, "rp": 22635, "wh": 22636, "'.": 22637, "!.": 22638, "><": 22639, "faa": 22640, " tk": 22641, "”),": 22642, " fc": 22643, "tib": 22644, "did": 22645, "azy": 22646, "cos": 22647, "civ": 22648, " tt": 22649, "eno": 22650, " sf": 22651, "uzi": 22652, "loe": 22653, "dh": 22654, "📌": 22655, "peg": 22656, " //": 22657, "ktr": 22658, "jpg": 22659, "uur": 22660, "zb": 22661, "xx": 22662, " وَ": 22663, "sac": 22664, " kb": 22665, "uel": 22666, "bro": 22667, "ünk": 22668, "mg": 22669, "rub": 22670, "lle": 22671, "‟": 22672, "pic": 22673, " jr": 22674, " qu": 22675, "dip": 22676, "uno": 22677, " ->": 22678, "()": 22679, " ),": 22680, "aco": 22681, ">\\": 22682, " ub": 22683, "spe": 22684, "faq": 22685, "iu": 22686, "imp": 22687, "((": 22688, "hiv": 22689, ",'": 22690, "fx": 22691, "xt": 22692, "die": 22693, "usk": 22694, "hom": 22695, "-,": 22696, "uxe": 22697, "🚀": 22698, "َّ": 22699, "ukt": 22700, "pod": 22701, "dsl": 22702, ".!": 22703, "png": 22704, "gta": 22705, "pss": 22706, "flo": 22707, "gor": 22708, "pd": 22709, " gt": 22710, "uty": 22711, "tro": 22712, "sms": 22713, "pes": 22714, "loz": 22715, "cez": 22716, "✨": 22717, "öst": 22718, "ogg": 22719, "cpu": 22720, "kos": 22721, "‌": 22722, "csv": 22723, "wt": 22724, "▪": 22725, " ax": 22726, "yc": 22727, "örg": 22728, "vem": 22729, "📍": 22730, " 😀": 22731, "hul": 22732, "ied": 22733, "ipa": 22734, ".?": 22735, "üss": 22736, "lli": 22737, "nto": 22738, "️⃣": 22739, "rio": 22740, ":'": 22741, "ick": 22742, "uff": 22743, "put": 22744, "hon": 22745, "uen": 22746, " ……": 22747, "woo": 22748, "ei": 22749, "rh": 22750, "zs": 22751, "ulp": 22752, "afp": 22753, "fot": 22754, "alc": 22755, "elf": 22756, "gp": 22757, "fj": 22758, "eto": 22759, " >>": 22760, "nay": 22761, "py": 22762, "sag": 22763, " }": 22764, "js": 22765, "que": 22766, "kea": 22767, " ?:": 22768, "alz": 22769, "fif": 22770, " sl": 22771, "akl": 22772, "îne": 22773, "pom": 22774, "mpa": 22775, "pub": 22776, " sw": 22777, "bf": 22778, "px": 22779, "vp": 22780, "bie": 22781, "bbc": 22782, "cap": 22783, "?.": 22784, "god": 22785, " ||": 22786, "nos": 22787, " ›": 22788, " eo": 22789, "col": 22790, "sky": 22791, "laz": 22792, "tra": 22793, "küm": 22794, "uu": 22795, "cho": 22796, "row": 22797, "uet": 22798, "dog": 22799, "✔️": 22800, "tul": 22801, "}}": 22802, "ign": 22803, "gt": 22804, "vip": 22805, "gap": 22806, ".**": 22807, "ufa": 22808, "dul": 22809, " gn": 22810, "osh": 22811, "iku": 22812, "osm": 22813, "nih": 22814, " ã": 22815, "dot": 22816, " lö": 22817, " ×": 22818, "ceo": 22819, " kn": 22820, "ndi": 22821, " mc": 22822, "uji": 22823, "sum": 22824, "hol": 22825, "\",\"": 22826, "isp": 22827, "alb": 22828, "zle": 22829, "oon": 22830, "lic": 22831, "erp": 22832, "ʿ": 22833, "gpt": 22834, "nz": 22835, ":+": 22836, "gn": 22837, "|[": 22838, "atr": 22839, "roj": 22840, "⭐": 22841, "kid": 22842, "anu": 22843, "sw": 22844, "(\"": 22845, "usd": 22846, "ws": 22847, "xy": 22848, "\"'": 22849, "ria": 22850, "🔹": 22851, "edo": 22852, "🤓": 22853, "nic": 22854, "tru": 22855, "alf": 22856, "dj": 22857, "rb": 22858, "non": 22859, "ا": 22860, "lec": 22861, "oss": 22862, " uh": 22863, "tol": 22864, "sle": 22865, "lop": 22866, "azu": 22867, "jk": 22868, "opa": 22869, "amu": 22870, "►": 22871, ".»": 22872, " fo": 22873, " ga": 22874, "∗": 22875, "dm": 22876, " 😍": 22877, ".\"-": 22878, "sas": 22879, "opu": 22880, "cup": 22881, "ayt": 22882, "efe": 22883, "tac": 22884, "oin": 22885, "fd": 22886, "abs": 22887, "nea": 22888, "gon": 22889, "": 22890, "vl": 22891, "cn": 22892, "sof": 22893, " dl": 22894, "mf": 22895, " dx": 22896, "iac": 22897, "ogo": 22898, "tey": 22899, " xp": 22900, "″": 22901, "xl": 22902, "yek": 22903, "sb": 22904, " gh": 22905, "’.": 22906, "voy": 22907, "ree": 22908, "pus": 22909, "…..": 22910, "iyy": 22911, "gg": 22912, "nob": 22913, "vb": 22914, "gez": 22915, "reh": 22916, "aib": 22917, "cha": 22918, "aik": 22919, "hij": 22920, "pac": 22921, "-\\": 22922, "luc": 22923, "[…]": 22924, "bok": 22925, "ý": 22926, "ifl": 22927, "oun": 22928, "ل": 22929, "olm": 22930, "iff": 22931, "ifs": 22932, "sud": 22933, "?!": 22934, "☺️": 22935, "ots": 22936, "🔗": 22937, "ior": 22938, ",,": 22939, "!’": 22940, "etz": 22941, "inz": 22942, "*\\": 22943, "arz": 22944, " jü": 22945, "rr": 22946, ";\"": 22947, " bâ": 22948, "ucc": 22949, "dns": 22950, " kp": 22951, " dm": 22952, ":%": 22953, "fib": 22954, "ibo": 22955, "chi": 22956, "bob": 22957, "bev": 22958, "iox": 22959, "svg": 22960, "why": 22961, "!-": 22962, "cci": 22963, "tos": 22964, "omo": 22965, "❌": 22966, "hag": 22967, "❤️": 22968, "apy": 22969, "blo": 22970, "moz": 22971, "zab": 22972, "fox": 22973, "lee": 22974, "​​": 22975, "gc": 22976, "": 22977, "deg": 22978, "agu": 22979, "lun": 22980, " râ": 22981, "aln": 22982, "ppo": 22983, "uth": 22984, "qa": 22985, "vee": 22986, "ofa": 22987, "ovu": 22988, "ق": 22989, "ieu": 22990, "ktu": 22991, "ikh": 22992, "cca": 22993, "mud": 22994, "rug": 22995, ",#": 22996, "von": 22997, "abc": 22998, "awa": 22999, "aus": 23000, "€": 23001, "xa": 23002, "auf": 23003, "wan": 23004, "…]": 23005, "aid": 23006, "aut": 23007, " hr": 23008, "ō": 23009, "upt": 23010, "”;": 23011, "kub": 23012, "now": 23013, "itl": 23014, "mh": 23015, "ürz": 23016, "enf": 23017, "obb": 23018, " tf": 23019, "dut": 23020, "neh": 23021, "iek": 23022, "aer": 23023, "ood": 23024, "rer": 23025, "ssl": 23026, "aby": 23027, "³": 23028, "?(": 23029, "َل": 23030, "�": 23031, "”“": 23032, "kep": 23033, " wh": 23034, "__": 23035, " rs": 23036, "zne": 23037, "..!": 23038, " nm": 23039, "oko": 23040, "pun": 23041, "emo": 23042, "sic": 23043, "aud": 23044, "rö": 23045, "qua": 23046, "₂": 23047, "fp": 23048, "aaa": 23049, "۪": 23050, "🌟": 23051, "zad": 23052, "):\\": 23053, "➡️": 23054, "cet": 23055, "!“": 23056, "‑": 23057, " gm": 23058, ",)": 23059, ":#": 23060, "fos": 23061, " 😉": 23062, "aqu": 23063, "gd": 23064, "fly": 23065, "sti": 23066, "jak": 23067, "uks": 23068, "gab": 23069, " pg": 23070, " wm": 23071, " pn": 23072, "aph": 23073, "duh": 23074, "pig": 23075, "hig": 23076, "wm": 23077, "veg": 23078, "yst": 23079, "hub": 23080, "lel": 23081, "م": 23082, "oga": 23083, "???": 23084, "bio": 23085, " yy": 23086, "fps": 23087, "lug": 23088, "uga": 23089, ",*": 23090, "zh": 23091, "ría": 23092, ")/": 23093, " ​": 23094, "]-": 23095, "َا": 23096, "cnn": 23097, "och": 23098, ":*": 23099, "cf": 23100, "/)": 23101, "bmw": 23102, "lda": 23103, "sf": 23104, "kev": 23105, "caa": 23106, "dit": 23107, ":@": 23108, "nab": 23109, "mix": 23110, "cey": 23111, "”:": 23112, "ك": 23113, "jo": 23114, "crm": 23115, "too": 23116, "“,": 23117, "aji": 23118, "%'": 23119, "tre": 23120, "wd": 23121, "oph": 23122, " ل": 23123, "nte": 23124, "nop": 23125, "﻿": 23126, "rix": 23127, ",%": 23128, "mum": 23129, "ت": 23130, "cio": 23131, "oak": 23132, "😡": 23133, "map": 23134, "psg": 23135, "ej": 23136, "jat": 23137, "wei": 23138, "php": 23139, "iod": 23140, "−": 23141, "hya": 23142, " lc": 23143, "aux": 23144, "á": 23145, "itr": 23146, " ا": 23147, "see": 23148, ".\"[": 23149, " oj": 23150, "ô": 23151, "aru": 23152, "👥": 23153, "eca": 23154, "😊": 23155, "aur": 23156, "erb": 23157, ").[": 23158, "?<": 23159, "wil": 23160, " kh": 23161, "lou": 23162, "hv": 23163, "ٰ": 23164, "cro": 23165, "lys": 23166, " (-": 23167, " gy": 23168, "ww": 23169, "rir": 23170, "ø": 23171, "ifo": 23172, ".@": 23173, "ubo": 23174, "lea": 23175, "caf": 23176, "aju": 23177, "esy": 23178, " sy": 23179, "gle": 23180, "))\\": 23181, "âce": 23182, "taj": 23183, "\">": 23184, "kw": 23185, "yez": 23186, " bp": 23187, "ssa": 23188, " _": 23189, "ebe": 23190, "ös": 23191, " ✅": 23192, "eu": 23193, " nv": 23194, "mâ": 23195, "oco": 23196, "oms": 23197, "oyl": 23198, "hiy": 23199, "(=": 23200, "ssp": 23201, "/?": 23202, "🌸": 23203, "💡": 23204, "cur": 23205, " \"\\": 23206, "hpv": 23207, "gpu": 23208, "cok": 23209, " `": 23210, "kör": 23211, "lei": 23212, "‍♂️": 23213, "omy": 23214, "ltu": 23215, " ux": 23216, "%%": 23217, "🙁": 23218, " 👍": 23219, "udd": 23220, "’:": 23221, "uge": 23222, "í": 23223, "iji": 23224, "xe": 23225, "yme": 23226, "gid": 23227, " mx": 23228, "zte": 23229, "zez": 23230, "eee": 23231, "een": 23232, "*}": 23233, " qt": 23234, "…)": 23235, "tri": 23236, "spa": 23237, "ḳ": 23238, "htt": 23239, "uke": 23240, "])": 23241, "apo": 23242, " ea": 23243, "elk": 23244, "üge": 23245, "🇷": 23246, "(!)": 23247, " pp": 23248, " (+": 23249, " ⭐": 23250, "lut": 23251, ").-": 23252, "]\"": 23253, "cbs": 23254, "hoc": 23255, " ew": 23256, "veh": 23257, "_{": 23258, " oi": 23259, "ī": 23260, "rag": 23261, "ppy": 23262, "♥": 23263, "laf": 23264, "owe": 23265, "yb": 23266, "hc": 23267, "⇒": 23268, "yog": 23269, "💚": 23270, " ct": 23271, " tp": 23272, "cia": 23273, "¼": 23274, "igh": 23275, "🌍": 23276, "🇹": 23277, " {{": 23278, "hop": 23279, "sup": 23280, "ues": 23281, "agl": 23282, "gea": 23283, " âm": 23284, "keb": 23285, "dub": 23286, "-\"": 23287, "çç": 23288, "oso": 23289, "hob": 23290, "vh": 23291, "‼️": 23292, "hus": 23293, "irg": 23294, "xi": 23295, "{\\": 23296, "ģ": 23297, "pec": 23298, "dua": 23299, "phi": 23300, "yce": 23301, "🎨": 23302, "fm": 23303, "agn": 23304, "{{": 23305, "css": 23306, " tê": 23307, " (.": 23308, "ilh": 23309, "lio": 23310, " (‘": 23311, "ecd": 23312, "½": 23313, "orp": 23314, "lia": 23315, "aug": 23316, "✍": 23317, " ns": 23318, "bh": 23319, "cir": 23320, " __": 23321, "via": 23322, "mx": 23323, "ر": 23324, "geo": 23325, "iw": 23326, "obs": 23327, "hw": 23328, "wal": 23329, "uat": 23330, "ubi": 23331, "ي": 23332, "ع": 23333, "buk": 23334, "olg": 23335, "buc": 23336, "fou": 23337, "law": 23338, " ly": 23339, "chc": 23340, "̣": 23341, "jur": 23342, "ب": 23343, "…….": 23344, " ft": 23345, "😋": 23346, "elb": 23347, "rie": 23348, "xen": 23349, " ls": 23350, "dl": 23351, "cip": 23352, "rou": 23353, "ف": 23354, "eco": 23355, "oby": 23356, " ry": 23357, "tg": 23358, "🙂": 23359, "daa": 23360, "afs": 23361, "🌿": 23362, "izo": 23363, " ??": 23364, "zeg": 23365, " \"-": 23366, " mw": 23367, "qs": 23368, "wu": 23369, "heh": 23370, "nbc": 23371, "iah": 23372, "kc": 23373, "lov": 23374, "💫": 23375, "gru": 23376, "oot": 23377, "oki": 23378, "hre": 23379, "ogn": 23380, "ه": 23381, "nlm": 23382, "dvd": 23383, "ˁ": 23384, "cub": 23385, "sex": 23386, "joe": 23387, "oil": 23388, " vo": 23389, "%=": 23390, "mic": 23391, "cab": 23392, ".%": 23393, "iru": 23394, "rei": 23395, " ny": 23396, "sid": 23397, "dag": 23398, "uch": 23399, "=”": 23400, "-%": 23401, "eo": 23402, " ‍": 23403, "oha": 23404, "!”,": 23405, "án": 23406, "📊": 23407, "cms": 23408, "_+": 23409, "_|": 23410, "®,": 23411, "gf": 23412, "ée": 23413, "lma": 23414, "tet": 23415, " nc": 23416, ").”": 23417, "tz": 23418, "⌘": 23419, "raw": 23420, "sea": 23421, "')": 23422, "doi": 23423, " cu": 23424, ",.": 23425, ".>": 23426, "🙋": 23427, "xml": 23428, "auz": 23429, "ühr": 23430, "cbd": 23431, " sz": 23432, "suv": 23433, "squ": 23434, "♡": 23435, "hek": 23436, "dx": 23437, " “…": 23438, "kta": 23439, "pcb": 23440, "mav": 23441, "jar": 23442, " ✨": 23443, "beb": 23444, "blu": 23445, "war": 23446, "bum": 23447, "ayo": 23448, "ès": 23449, "feo": 23450, "………": 23451, "zw": 23452, ".{": 23453, "who": 23454, "ghz": 23455, "ج": 23456, " :-": 23457, "eso": 23458, "lox": 23459, " „": 23460, "alh": 23461, "vv": 23462, "\";": 23463, "ief": 23464, "](": 23465, "ñ": 23466, "à": 23467, "gio": 23468, "mii": 23469, "ög": 23470, "rn": 23471, " wc": 23472, "ّ": 23473, "liz": 23474, " rx": 23475, "sto": 23476, "‍♀️": 23477, "awk": 23478, "bac": 23479, "🤲": 23480, "zac": 23481, " ♥": 23482, "💯": 23483, ")))": 23484, "ح": 23485, "dhl": 23486, " gx": 23487, " iu": 23488, "inv": 23489, "dab": 23490, "hos": 23491, "ego": 23492, " :(": 23493, "\"),": 23494, "ḥ": 23495, "س": 23496, "ofu": 23497, "📞": 23498, " pd": 23499, "adu": 23500, "aho": 23501, "hö": 23502, "':": 23503, "☺": 23504, "lym": 23505, "lef": 23506, " gz": 23507, "🎯": 23508, " ae": 23509, "↓": 23510, "ecm": 23511, "у": 23512, "ən": 23513, "rea": 23514, " py": 23515, "isc": 23516, "gk": 23517, "ين": 23518, "pis": 23519, "fee": 23520, "ó": 23521, "obl": 23522, "coc": 23523, "”…": 23524, "ît": 23525, " 🥰": 23526, "ups": 23527, "ș": 23528, ".__": 23529, "zev": 23530, "etc": 23531, "ι": 23532, "α": 23533, "roc": 23534, "nah": 23535, "prs": 23536, "\"-": 23537, "tia": 23538, " -\\": 23539, "💐": 23540, "bg": 23541, "⚠️": 23542, "pvc": 23543, "ˈ": 23544, "htm": 23545, "💸": 23546, "swe": 23547, "ead": 23548, "chn": 23549, "yno": 23550, "fn": 23551, "abr": 23552, "nga": 23553, " jé": 23554, "+,": 23555, "bib": 23556, "upp": 23557, "try": 23558, "nac": 23559, "fw": 23560, "oct": 23561, "cx": 23562, "kii": 23563, "‎": 23564, "vn": 23565, "sip": 23566, "/-": 23567, "fis": 23568, " wp": 23569, "daf": 23570, "ón": 23571, "ued": 23572, "yti": 23573, "ò": 23574, "enh": 23575, "hdd": 23576, "adm": 23577, "zit": 23578, ",’": 23579, "fbi": 23580, "hbo": 23581, "pra": 23582, "…’": 23583, "#,": 23584, "orc": 23585, ")&": 23586, "kie": 23587, "nft": 23588, " \"(": 23589, "ون": 23590, "ن": 23591, "haw": 23592, " ✔": 23593, "bom": 23594, "iky": 23595, "és": 23596, "wn": 23597, "('": 23598, "📚": 23599, "★": 23600, "olk": 23601, " tw": 23602, " ld": 23603, "iph": 23604, "uit": 23605, "%,": 23606, "eau": 23607, "(*)": 23608, "iqu": 23609, "apl": 23610, " 🙌": 23611, "gra": 23612, "و": 23613, "َم": 23614, "ِي": 23615, "ط": 23616, "ٓ": 23617, " ig": 23618, ")…": 23619, "iad": 23620, " ).": 23621, "osi": 23622, "pn": 23623, "/.": 23624, "wc": 23625, "obe": 23626, "aas": 23627, "mde": 23628, "zid": 23629, "cov": 23630, "ieg": 23631, "imf": 23632, "iby": 23633, "oul": 23634, "uce": 23635, "jul": 23636, "för": 23637, "🤩": 23638, "💙": 23639, "fim": 23640, "hud": 23641, " \"\"": 23642, "obj": 23643, "🤗": 23644, " ji": 23645, "lh": 23646, "ش": 23647, "::": 23648, "igm": 23649, "ufu": 23650, "?—": 23651, "ën": 23652, "epa": 23653, "uju": 23654, "fti": 23655, "tog": 23656, "ogu": 23657, "❤": 23658, "gps": 23659, "oud": 23660, " xr": 23661, " β": 23662, "nag": 23663, " td": 23664, "epe": 23665, "aws": 23666, "neo": 23667, "uis": 23668, " gp": 23669, "ز": 23670, "xb": 23671, " nk": 23672, "joy": 23673, "ão": 23674, "cot": 23675, "deh": 23676, "iop": 23677, "cdc": 23678, "eds": 23679, "iis": 23680, ".</": 23681, ",=": 23682, "∑": 23683, "cop": 23684, "š": 23685, "gol": 23686, "🥰": 23687, "‹": 23688, "ū": 23689, " sv": 23690, "?\",": 23691, "sma": 23692, "rv": 23693, "sys": 23694, "nof": 23695, " dî": 23696, "…\"": 23697, " pk": 23698, "sts": 23699, "ān": 23700, "ein": 23701, "dib": 23702, " ja": 23703, "fb": 23704, "sty": 23705, "🏡": 23706, " kt": 23707, "ega": 23708, "iaz": 23709, "usc": 23710, "َع": 23711, "dw": 23712, "bye": 23713, " dw": 23714, "ivo": 23715, " nf": 23716, "cii": 23717, "🏼": 23718, "fda": 23719, "ər": 23720, "¤": 23721, "ى": 23722, "👍": 23723, "lf": 23724, "ên": 23725, "pha": 23726, "---": 23727, "⭐️": 23728, "“(": 23729, "pur": 23730, "yh": 23731, "wwe": 23732, "hai": 23733, " fb": 23734, "seh": 23735, "env": 23736, "🏁": 23737, "pf": 23738, "nie": 23739, "ć": 23740, "cnc": 23741, " ↑": 23742, "ρ": 23743, "yai": 23744, "cao": 23745, ")#": 23746, "cow": 23747, ".):": 23748, "📢": 23749, "dex": 23750, "🔍": 23751, "okr": 23752, "..\"": 23753, "cht": 23754, "upi": 23755, "ois": 23756, "bub": 23757, "bdt": 23758, "unn": 23759, "asc": 23760, "mse": 23761, "aje": 23762, "iec": 23763, "onk": 23764, "oge": 23765, "🌹": 23766, "mmm": 23767, "</": 23768, "ubs": 23769, "rna": 23770, " ug": 23771, " nr": 23772, "––": 23773, " ($": 23774, "aea": 23775, "cy": 23776, "ía": 23777, "ech": 23778, "zig": 23779, " ….": 23780, "uct": 23781, "dry": 23782, "vaj": 23783, "lr": 23784, "cve": 23785, "eur": 23786, " ll": 23787, "ѕ": 23788, "!,": 23789, "】": 23790, "➤": 23791, " ng": 23792, "bee": 23793, "uds": 23794, " xt": 23795, "vii": 23796, "tha": 23797, "mvp": 23798, " fx": 23799, " gs": 23800, "ِن": 23801, "hev": 23802, "ipc": 23803, "ré": 23804, "kke": 23805, ":<": 23806, " ('": 23807, "pix": 23808, " 👉": 23809, "uky": 23810, "..”": 23811, "igl": 23812, "!(": 23813, " io": 23814, "tms": 23815, "tad": 23816, "cmd": 23817, " zw": 23818, " ®": 23819, "örk": 23820, "rss": 23821, " kf": 23822, "👤": 23823, "ibb": 23824, "aso": 23825, "vor": 23826, "tig": 23827, "هِ": 23828, "),\\": 23829, " û": 23830, " ;)": 23831, "nom": 23832, "itu": 23833, "urf": 23834, "}\\": 23835, "كَ": 23836, "‛": 23837, "cic": 23838, "btc": 23839, "mee": 23840, " 🤗": 23841, "gif": 23842, "umn": 23843, " ee": 23844, "uck": 23845, " gw": 23846, "nse": 23847, "ِل": 23848, " ر": 23849, "💻": 23850, "+\\": 23851, "😍": 23852, "lp": 23853, " ↓": 23854, "doc": 23855, "َت": 23856, "َة": 23857, "lom": 23858, "😇": 23859, "✓": 23860, "👌": 23861, "oub": 23862, " hk": 23863, "%\\": 23864, "cod": 23865, " rc": 23866, ")—": 23867, "jor": 23868, "oa": 23869, "rii": 23870, "zzi": 23871, " dd": 23872, "jev": 23873, "kaw": 23874, ".+": 23875, "َب": 23876, "👏": 23877, "с": 23878, "isf": 23879, "bou": 23880, "juv": 23881, " (*": 23882, "çao": 23883, "📖": 23884, "umo": 23885, "’)": 23886, "cou": 23887, "uil": 23888, " pf": 23889, "rai": 23890, "jac": 23891, ")^": 23892, "iew": 23893, "lap": 23894, "ppa": 23895, " jo": 23896, " aq": 23897, "afe": 23898, " ✓": 23899, "//": 23900, "kia": 23901, "ω": 23902, "ept": 23903, "avo": 23904, "tx": 23905, "kih": 23906, " vg": 23907, "eln": 23908, "☎": 23909, "was": 23910, "ψ": 23911, "leh": 23912, "’”": 23913, "ذ": 23914, "bbe": 23915, " rm": 23916, "<-": 23917, "⚡": 23918, "cle": 23919, " *\\": 23920, "º": 23921, "ɪ": 23922, ":=": 23923, "usp": 23924, " ½": 23925, " mf": 23926, "gum": 23927, "mtv": 23928, " $\\": 23929, "eat": 23930, "︎": 23931, "+'": 23932, "○": 23933, "htc": 23934, "»,": 23935, "jun": 23936, "obo": 23937, "]),": 23938, "apu": 23939, "\u0002": 23940, "igu": 23941, "vul": 23942, "ews": 23943, "éd": 23944, " ❤": 23945, "nj": 23946, " bn": 23947, " 🎉": 23948, "oys": 23949, " xs": 23950, "||": 23951, "hle": 23952, "ooo": 23953, "liv": 23954, " tx": 23955, "ogh": 23956, "ovy": 23957, "ouf": 23958, "inp": 23959, " 【": 23960, "+)": 23961, "dea": 23962, "mri": 23963, "ٍ": 23964, "ًا": 23965, "π": 23966, " ت": 23967, " (<": 23968, "zki": 23969, " ua": 23970, "cta": 23971, "adv": 23972, "\"[": 23973, "uhi": 23974, "ص": 23975, "onz": 23976, " ks": 23977, "[-": 23978, "hne": 23979, "ł": 23980, "🧐": 23981, "qq": 23982, "acs": 23983, "boo": 23984, "._": 23985, "jp": 23986, "xo": 23987, "pcs": 23988, "😅": 23989, "mrp": 23990, "bri": 23991, "‡": 23992, "agm": 23993, ">>>": 23994, "pci": 23995, "aii": 23996, "hah": 23997, "hts": 23998, "bog": 23999, " fd": 24000, "spl": 24001, "🖤": 24002, " kd": 24003, "💖": 24004, "onn": 24005, "θ": 24006, "zio": 24007, "َن": 24008, "": 24009, "": 24010, "*:": 24011, "île": 24012, ").(": 24013, "pid": 24014, "hyd": 24015, "وَ": 24016, "bow": 24017, " '[": 24018, "ña": 24019, "'(": 24020, "ulf": 24021, "ì": 24022, ".«": 24023, ")|": 24024, " så": 24025, "tot": 24026, "\").": 24027, " ;\\": 24028, "lyn": 24029, "hap": 24030, "vps": 24031, " у": 24032, "ْر": 24033, "ipp": 24034, "📲": 24035, "🏆": 24036, "yne": 24037, "**,": 24038, "ftp": 24039, " ﻿": 24040, "rya": 24041, "oad": 24042, " pâ": 24043, ")$": 24044, " eq": 24045, " nt": 24046, "هُ": 24047, "✦": 24048, "ije": 24049, " bs": 24050, "🟡": 24051, "iav": 24052, "nou": 24053, "": 24054, "■": 24055, "amt": 24056, "awn": 24057, "uña": 24058, "(\\": 24059, "ال": 24060, " بِ": 24061, "oem": 24062, "ymi": 24063, "stu": 24064, "č": 24065, "ºc": 24066, "bts": 24067, "🔥": 24068, "£": 24069, " م": 24070, "mei": 24071, "(%": 24072, "📅": 24073, "😉": 24074, "ُوا": 24075, " qd": 24076, "dew": 24077, "oom": 24078, "cco": 24079, "wen": 24080, "lof": 24081, "xs": 24082, ":.": 24083, ",..": 24084, "mw": 24085, "📈": 24086, "ipv": 24087, "”).": 24088, "ː": 24089, "⚖": 24090, "ٱ": 24091, "wl": 24092, "lte": 24093, "pb": 24094, " £": 24095, "nsa": 24096, "ltd": 24097, "ql": 24098, "odd": 24099, "én": 24100, "oxo": 24101, ":”": 24102, "ْم": 24103, "acz": 24104, "],[": 24105, "<<": 24106, "syl": 24107, "📱": 24108, "zia": 24109, "!).": 24110, "pip": 24111, "oky": 24112, "wed": 24113, "êt": 24114, " cg": 24115, "fax": 24116, "ych": 24117, "←": 24118, "خ": 24119, "igg": 24120, "mia": 24121, "َي": 24122, "ო": 24123, "tub": 24124, " à": 24125, "“…": 24126, " ^": 24127, "oux": 24128, "sco": 24129, "$'": 24130, "➜": 24131, "･": 24132, "enu": 24133, " …,": 24134, "zos": 24135, " ie": 24136, "è": 24137, "gev": 24138, "vz": 24139, "asr": 24140, "nti": 24141, ";(": 24142, "َق": 24143, "gsm": 24144, "ndo": 24145, "/'": 24146, "maf": 24147, "dg": 24148, "uzz": 24149, "þ": 24150, "agh": 24151, "sef": 24152, "haa": 24153, "🌾": 24154, " wl": 24155, "iž": 24156, "hof": 24157, "osc": 24158, "ْل": 24159, "-”": 24160, "bej": 24161, "/\"": 24162, "“-": 24163, "wr": 24164, "cry": 24165, "ilu": 24166, "emt": 24167, "?;": 24168, "ehl": 24169, " nw": 24170, " π": 24171, " dt": 24172, "spr": 24173, "hog": 24174, "oit": 24175, "🧠": 24176, " 😂": 24177, "(-": 24178, "är": 24179, "rgb": 24180, "ْت": 24181, " ي": 24182, "clu": 24183, "hdr": 24184, " ;(": 24185, " ž": 24186, "lv": 24187, "rig": 24188, "+.": 24189, "ð": 24190, "lux": 24191, "ukh": 24192, "😈": 24193, "🤝": 24194, ":/": 24195, "soc": 24196, "moh": 24197, "ُر": 24198, "roi": 24199, "jal": 24200, "]'": 24201, "ة": 24202, ")>": 24203, " lm": 24204, "uin": 24205, "ufl": 24206, "lir": 24207, "µ": 24208, "fg": 24209, "xm": 24210, " ox": 24211, " ,\\": 24212, "ror": 24213, "أ": 24214, "ē": 24215, "ojo": 24216, "sse": 24217, "🔴": 24218, " ?”": 24219, "yss": 24220, " bg": 24221, "‐": 24222, "adh": 24223, "rex": 24224, "?[": 24225, "xxx": 24226, "agr": 24227, "agg": 24228, ".\"'": 24229, " \".": 24230, "gge": 24231, "'-": 24232, " vm": 24233, "();": 24234, "zzz": 24235, "fid": 24236, "oir": 24237, " α": 24238, "hex": 24239, " ww": 24240, "ppe": 24241, " js": 24242, "qn": 24243, "%)": 24244, " dn": 24245, "zza": 24246, "pep": 24247, "zeb": 24248, "★★": 24249, "atz": 24250, "☀️": 24251, " wd": 24252, "dez": 24253, " ck": 24254, " ’’": 24255, "*.": 24256, "я": 24257, "kpi": 24258, "acy": 24259, "{-": 24260, " .(": 24261, "🎓": 24262, "wig": 24263, "ِّ": 24264, " fj": 24265, "),[": 24266, "ofy": 24267, "​.": 24268, "„": 24269, "ë": 24270, "🌐": 24271, "َنْ": 24272, "';": 24273, "oft": 24274, "ldl": 24275, "ṣ": 24276, "ṭ": 24277, "gly": 24278, ")]": 24279, "pcr": 24280, "🔽": 24281, "xyz": 24282, "lie": 24283, "two": 24284, "mai": 24285, ")?": 24286, " /\\": 24287, "idu": 24288, " fn": 24289, "}{": 24290, "🍃": 24291, "$\\": 24292, " hb": 24293, "ُم": 24294, "η": 24295, "❗": 24296, " ★": 24297, "ôme": 24298, "ﬂ": 24299, "ﬁ": 24300, " šk": 24301, "dow": 24302, "ᐉ": 24303, "spy": 24304, "sni": 24305, "hee": 24306, " fs": 24307, "jas": 24308, " 🔥": 24309, "whe": 24310, "std": 24311, "joh": 24312, "?/": 24313, " ż": 24314, "equ": 24315, "[]": 24316, "ffe": 24317, "mul": 24318, "icy": 24319, "lcd": 24320, " lb": 24321, " “”": 24322, "ْن": 24323, "due": 24324, "tls": 24325, " cw": 24326, "ngc": 24327, " !!": 24328, "ldi": 24329, "ynn": 24330, "etu": 24331, "bic": 24332, "yra": 24333, ";.": 24334, " ن": 24335, " vc": 24336, "tea": 24337, "frs": 24338, "jou": 24339, "’!": 24340, " ق": 24341, "ż": 24342, "⌥": 24343, "/).": 24344, "hg": 24345, "sri": 24346, " и": 24347, " cn": 24348, "vra": 24349, "æ": 24350, " ju": 24351, "mv": 24352, "😛": 24353, "يل": 24354, "pex": 24355, "ruc": 24356, "oes": 24357, " ”.": 24358, " 💪": 24359, ");\\": 24360, "📰": 24361, "👀": 24362, "iak": 24363, "pse": 24364, " vw": 24365, "🏠": 24366, "لا": 24367, " wo": 24368, "eem": 24369, " ك": 24370, ").\"": 24371, "ть": 24372, "🌀": 24373, "),(": 24374, "¨": 24375, "ß": 24376, "✯": 24377, "𝖎": 24378, "duc": 24379, "υ": 24380, "ّٰ": 24381, "ُّ": 24382, "!?": 24383, "okh": 24384, "kuk": 24385, "scr": 24386, "mml": 24387, "‬": 24388, "uze": 24389, "ère": 24390, " jw": 24391, "mhz": 24392, "owa": 24393, "buf": 24394, "nid": 24395, "sug": 24396, "six": 24397, " gk": 24398, "ewe": 24399, "tnf": 24400, "acl": 24401, "ა": 24402, "shi": 24403, "iao": 24404, "jav": 24405, " jp": 24406, "kei": 24407, "svr": 24408, "inu": 24409, "opf": 24410, "seg": 24411, "⏳": 24412, " oe": 24413, "ġ": 24414, "🟥": 24415, "dac": 24416, "teg": 24417, "gv": 24418, " .”": 24419, "hoo": 24420, " /(": 24421, "є": 24422, "gow": 24423, "noy": 24424, "adz": 24425, "adj": 24426, "ité": 24427, "bmc": 24428, " в": 24429, " و": 24430, "د": 24431, "َوْ": 24432, "🌺": 24433, "fuj": 24434, "];": 24435, "otr": 24436, "adt": 24437, "niv": 24438, "zec": 24439, "👁": 24440, "atp": 24441, "³/": 24442, "💕": 24443, "(@": 24444, "umd": 24445, " 👌": 24446, "ngo": 24447, " hh": 24448, " $)": 24449, " aw": 24450, "📝": 24451, " ►": 24452, "™,": 24453, "φ": 24454, "🛒": 24455, "\\'": 24456, "ocy": 24457, "awi": 24458, "adb": 24459, "ست": 24460, "job": 24461, ":>": 24462, "sne": 24463, "uum": 24464, "imt": 24465, "uft": 24466, "🙄": 24467, "jie": 24468, "ofi": 24469, "ahm": 24470, " ⇒": 24471, "": 24472, " rp": 24473, "😁": 24474, "jw": 24475, "]:": 24476, "📆": 24477, "👩": 24478, "pmc": 24479, "eus": 24480, "apr": 24481, "🐈": 24482, "mss": 24483, "м": 24484, "🟢": 24485, "asd": 24486, "َهُ": 24487, "◍": 24488, "๑": 24489, "koj": 24490, "vw": 24491, "sue": 24492, "∆": 24493, "vio": 24494, "bmi": 24495, " fp": 24496, "ُل": 24497, "ees": 24498, "ska": 24499, "ów": 24500, "lai": 24501, "msc": 24502, "ija": 24503, "vf": 24504, " |\\": 24505, "jog": 24506, " “(": 24507, "dro": 24508, "/#": 24509, "oxy": 24510, " يُ": 24511, "igd": 24512, "🤦": 24513, " fö": 24514, "🍪": 24515, "exc": 24516, "gak": 24517, " ™": 24518, "λ": 24519, "|\\": 24520, "gad": 24521, "😘": 24522, "₂)": 24523, "mq": 24524, "’-": 24525, " jd": 24526, "-'": 24527, "wy": 24528, "?»": 24529, "ós": 24530, "lly": 24531, "idf": 24532, "ihu": 24533, "emu": 24534, "gic": 24535, "cks": 24536, "˙": 24537, "esm": 24538, "rox": 24539, " rl": 24540, "glu": 24541, ")`": 24542, "）": 24543, "¸": 24544, "ú": 24545, "jab": 24546, "ptr": 24547, "orz": 24548, "jid": 24549, " bc": 24550, " µ": 24551, "🍒": 24552, "..?": 24553, "ysh": 24554, "nfl": 24555, "ín": 24556, "zag": 24557, " ø": 24558, "ebu": 24559, "ubb": 24560, "fh": 24561, "hao": 24562, "lé": 24563, "wb": 24564, "enl": 24565, " lp": 24566, "õ": 24567, " “‘": 24568, "cw": 24569, "ibm": 24570, "etr": 24571, " ش": 24572, "َيْ": 24573, "﴿": 24574, "﴾": 24575, "ν": 24576, "wer": 24577, "dou": 24578, " wy": 24579, " (!": 24580, "foe": 24581, "نا": 24582, "დ": 24583, "ენ": 24584, "aq": 24585, ".&": 24586, "🔋": 24587, "ibl": 24588, " vn": 24589, "̂": 24590, "egu": 24591, "💜": 24592, "ات": 24593, "👨": 24594, "dru": 24595, " ((": 24596, " tg": 24597, "*)": 24598, "يد": 24599, "-.": 24600, "cef": 24601, "nge": 24602, "“)": 24603, "jf": 24604, "sz": 24605, "ttt": 24606, "xv": 24607, "—-": 24608, " æ": 24609, "ugi": 24610, "😖": 24611, "bia": 24612, "。。": 24613, "ño": 24614, "🙏": 24615, ",''": 24616, " о": 24617, "guy": 24618, "iap": 24619, "spd": 24620, "bz": 24621, "🎮": 24622, "aap": 24623, "🤭": 24624, " 💕": 24625, "ž": 24626, "jn": 24627, "frü": 24628, "dsm": 24629, " ἀ": 24630, " ب": 24631, "🎉": 24632, "غ": 24633, "َف": 24634, "wk": 24635, "ecz": 24636, "uye": 24637, "loc": 24638, "📦": 24639, "ِر": 24640, " عَ": 24641, "olc": 24642, ".--": 24643, "dif": 24644, "zie": 24645, " cp": 24646, "zv": 24647, "psy": 24648, "ɑ": 24649, "💰": 24650, "eq": 24651, " $'": 24652, "wol": 24653, "▼": 24654, "ohr": 24655, "dai": 24656, "jm": 24657, "ows": 24658, "fri": 24659, "💧": 24660, "osr": 24661, " fy": 24662, "ctv": 24663, "leo": 24664, " vt": 24665, "öse": 24666, "🌷": 24667, "nog": 24668, "=-": 24669, "chy": 24670, "nip": 24671, "jay": 24672, "”?": 24673, " “[": 24674, "ège": 24675, "iin": 24676, "": 24677, "ʾ": 24678, "🤔": 24679, " zf": 24680, " на": 24681, "": 24682, "xia": 24683, "idl": 24684, " rd": 24685, "ād": 24686, " د": 24687, "ۚ": 24688, "ync": 24689, "ка": 24690, "😄": 24691, "mgr": 24692, "lll": 24693, "🤤": 24694, "nox": 24695, "xc": 24696, " nl": 24697, "bea": 24698, "ض": 24699, " ع": 24700, "exp": 24701, ".”—": 24702, "aes": 24703, "jl": 24704, "📘": 24705, "rej": 24706, ",{": 24707, "eev": 24708, " cx": 24709, "hdl": 24710, "…,": 24711, " 😘": 24712, " ط": 24713, "ير": 24714, "kip": 24715, "uja": 24716, "mea": 24717, "mdi": 24718, "/(": 24719, "ruv": 24720, " wa": 24721, "²)": 24722, "🕊": 24723, "🔄": 24724, "pei": 24725, "hyp": 24726, "zoo": 24727, "\".[": 24728, "igt": 24729, "noc": 24730, " è": 24731, "هم": 24732, " من": 24733, " أ": 24734, ")..": 24735, "*,": 24736, " zx": 24737, "uso": 24738, "āt": 24739, "psd": 24740, "اً": 24741, "iré": 24742, "ˀ": 24743, "": 24744, "hx": 24745, "‖": 24746, " qi": 24747, "kao": 24748, "pv": 24749, "↖": 24750, "🛠": 24751, "cdn": 24752, "🔸": 24753, "!:": 24754, " ج": 24755, "wel": 24756, ";)": 24757, "ým": 24758, " ==": 24759, "dde": 24760, "ẖ": 24761, "jek": 24762, "🎁": 24763, "zoa": 24764, "dre": 24765, "🥳": 24766, " &&": 24767, "crp": 24768, "ssi": 24769, "vex": 24770, "ْب": 24771, "wf": 24772, "✈": 24773, "dct": 24774, "👏👏": 24775, "yx": 24776, "cea": 24777, " (=": 24778, "){": 24779, "mö": 24780, " ',": 24781, "üü": 24782, "dus": 24783, "ŋ": 24784, "(!": 24785, "rpg": 24786, "qm": 24787, " xd": 24788, "]]": 24789, "sci": 24790, "ép": 24791, "/,": 24792, "sob": 24793, " tn": 24794, "##": 24795, "ان": 24796, "́": 24797, "ă": 24798, "tai": 24799, "ï": 24800, "，": 24801, " hx": 24802, "hti": 24803, "tee": 24804, "teo": 24805, "ég": 24806, "і": 24807, "ს": 24808, "ლ": 24809, "unz": 24810, "🇸": 24811, " bj": 24812, " :/": 24813, "raa": 24814, "..,": 24815, " =)": 24816, "ət": 24817, "kf": 24818, "∂": 24819, "ér": 24820, "},": 24821, "elh": 24822, "oyo": 24823, "🥺": 24824, "⭐⭐": 24825, " cz": 24826, ")=": 24827, "،": 24828, "sce": 24829, "的": 24830, " gc": 24831, "ál": 24832, ")!": 24833, "icz": 24834, " é": 24835, "suk": 24836, " sx": 24837, "rrr": 24838, "fff": 24839, "📄": 24840, "lau": 24841, "myd": 24842, "afd": 24843, "mau": 24844, "كم": 24845, "thf": 24846, ".”)": 24847, " nz": 24848, "’;": 24849, " </": 24850, "///": 24851, "/\">": 24852, " ´": 24853, "\"%": 24854, "öny": 24855, "ś": 24856, "fie": 24857, "tif": 24858, " dz": 24859, "wom": 24860, "َات": 24861, " \"'": 24862, " df": 24863, "ags": 24864, " dv": 24865, "mba": 24866, " 😄": 24867, "sop": 24868, " (#": 24869, "!),": 24870, "nlp": 24871, "msg": 24872, "ihl": 24873, "src": 24874, "neu": 24875, "eel": 24876, "ssr": 24877, "🗓": 24878, "🧩": 24879, "ght": 24880, "﻿﻿": 24881, "rx": 24882, "{}": 24883, "msa": 24884, "sho": 24885, "ogs": 24886, "🤖": 24887, "γο": 24888, "δ": 24889, "\");": 24890, "ُمْ": 24891, "ный": 24892, "tax": 24893, "ار": 24894, "َاب": 24895, "ttu": 24896, "“.": 24897, "été": 24898, "apc": 24899, " cj": 24900, "aad": 24901, "kla": 24902, "nod": 24903, "ène": 24904, "än": 24905, "ის": 24906, "🥇": 24907, "qc": 24908, "ppi": 24909, "👶": 24910, " 😁": 24911, "📉": 24912, "☕": 24913, " ao": 24914, "evt": 24915, "fah": 24916, "😆": 24917, "irp": 24918, "◾": 24919, "hou": 24920, "jj": 24921, "ми": 24922, "ply": 24923, "eid": 24924, "éma": 24925, " bv": 24926, " ws": 24927, "°)": 24928, "┐": 24929, ";;": 24930, "bau": 24931, "tcp": 24932, "));": 24933, " σ": 24934, "mcl": 24935, "🍁": 24936, "ctr": 24937, "𝖆": 24938, "jam": 24939, " $,": 24940, "lew": 24941, "rtc": 24942, "+++": 24943, "*\"": 24944, "bv": 24945, "ška": 24946, "foy": 24947, "hea": 24948, "sew": 24949, "%.": 24950, ")%": 24951, "bry": 24952, "😃": 24953, ")<": 24954, "cte": 24955, " š": 24956, "hug": 24957, ")),": 24958, "cox": 24959, "ʒ": 24960, "♈": 24961, "feb": 24962, "psa": 24963, " تُ": 24964, " lh": 24965, "jag": 24966, "avk": 24967, "σ": 24968, "jaw": 24969, "🎈": 24970, "ِد": 24971, "mmc": 24972, "'\"": 24973, "hrs": 24974, " γ": 24975, " =>": 24976, "auc": 24977, "👋": 24978, "ivy": 24979, "pox": 24980, "sdk": 24981, "oxi": 24982, "wow": 24983, "..)": 24984, "nej": 24985, "ogt": 24986, "cli": 24987, "msp": 24988, "🇺": 24989, "gym": 24990, "▶": 24991, " jk": 24992, " qc": 24993, "uzo": 24994, "!»": 24995, "cru": 24996, "🔌": 24997, "thy": 24998, "moj": 24999, "goo": 25000, "qi": 25001, " ف": 25002, "ِم": 25003, " jj": 25004, "sie": 25005, "rau": 25006, "syn": 25007, "?”.": 25008, "≡": 25009, "⚙": 25010, " yt": 25011, "（": 25012, "❤❤": 25013, " rv": 25014, " ré": 25015, "itä": 25016, "-;": 25017, "pda": 25018, "^-": 25019, "sbs": 25020, "isz": 25021, " “.": 25022, "✖": 25023, "œ": 25024, "kij": 25025, "➕": 25026, "agy": 25027, "nau": 25028, " к": 25029, "ôn": 25030, "ciu": 25031, "😤": 25032, " %%": 25033, "🌼": 25034, "lud": 25035, "yaa": 25036, "occ": 25037, " خ": 25038, "⬇": 25039, "gos": 25040, "='/": 25041, "jos": 25042, "ύ": 25043, "shu": 25044, "gie": 25045, "ša": 25046, "ços": 25047, "(((": 25048, "fom": 25049, "\"#": 25050, "upy": 25051, "ém": 25052, " }}": 25053, "utz": 25054, "imu": 25055, "💼": 25056, "gia": 25057, " wê": 25058, "idz": 25059, "📣": 25060, "axi": 25061, " ¼": 25062, "ث": 25063, "..<": 25064, "won": 25065, "stl": 25066, "omn": 25067, "ods": 25068, "β": 25069, "ocl": 25070, "وا": 25071, "izu": 25072, "sei": 25073, "rax": 25074, "ٌ": 25075, "მ": 25076, "ulc": 25077, "noh": 25078, "cig": 25079, "uxi": 25080, ">,": 25081, " ”,": 25082, "🎧": 25083, "idc": 25084, " ‪": 25085, "gef": 25086, "ˆ": 25087, "dod": 25088, "kag": 25089, "ème": 25090, "⏰": 25091, " ―": 25092, "eze": 25093, "auk": 25094, "🔺": 25095, "upo": 25096, "😌": 25097, "zka": 25098, "gav": 25099, "eru": 25100, " $/": 25101, "nig": 25102, " nj": 25103, "★★★": 25104, "phy": 25105, " på": 25106, "=[]": 25107, " ●": 25108, "xn": 25109, "pto": 25110, " ):": 25111, "koe": 25112, "naj": 25113, "əm": 25114, ".);": 25115, ");\"": 25116, "hei": 25117, "˚": 25118, "لل": 25119, "chd": 25120, " ℃": 25121, " 👋": 25122, " ♡": 25123, "pst": 25124, "^{": 25125, "ppt": 25126, "🙏🏻": 25127, "opp": 25128, " ص": 25129, "َال": 25130, "ayu": 25131, "pok": 25132, "inj": 25133, "х": 25134, "зи": 25135, " gq": 25136, "↻": 25137, " mq": 25138, " və": 25139, "uw": 25140, "hua": 25141, "bys": 25142, ".}": 25143, ";}": 25144, "}}\\": 25145, "oor": 25146, "ـ": 25147, "pdm": 25148, "😔": 25149, "lö": 25150, "ⓘ": 25151, "..'": 25152, "hoy": 25153, "ām": 25154, " vp": 25155, " .\"": 25156, "ār": 25157, "إ": 25158, "[\"": 25159, "🚚": 25160, " oa": 25161, "َان": 25162, "rys": 25163, "يري": 25164, " lé": 25165, "ugo": 25166, "rae": 25167, "mma": 25168, " !”": 25169, "rés": 25170, "dés": 25171, "āb": 25172, "———": 25173, "loy": 25174, "ål": 25175, "ე": 25176, " xy": 25177, "\"][": 25178, "🔎": 25179, "otp": 25180, "<<<": 25181, "ohl": 25182, "🚨": 25183, "qui": 25184, "‒": 25185, " 🌱": 25186, "📋": 25187, "shr": 25188, "öra": 25189, "pms": 25190, "nir": 25191, "zhi": 25192, "🌱": 25193, " lx": 25194, "⇢": 25195, " +(": 25196, "ées": 25197, "eed": 25198, "tou": 25199, "tnt": 25200, "rmi": 25201, "َه": 25202, "deo": 25203, " uu": 25204, "rue": 25205, "fao": 25206, "―": 25207, "htu": 25208, "ūr": 25209, "iei": 25210, "fld": 25211, "dio": 25212, "uq": 25213, " ث": 25214, " ▶": 25215, "lng": 25216, "');": 25217, "jsp": 25218, "ugg": 25219, "urp": 25220, " vf": 25221, "bbb": 25222, " ([": 25223, "$)": 25224, "bär": 25225, " ,,": 25226, "ixi": 25227, "++,": 25228, "icu": 25229, "ouk": 25230, " mə": 25231, "whm": 25232, "++)": 25233, "çon": 25234, " )-": 25235, "ία": 25236, "💞": 25237, " δ": 25238, "ст": 25239, "wam": 25240, "=\"_": 25241, ")**": 25242, "ßen": 25243, "eos": 25244, "бет": 25245, "ək": 25246, "koh": 25247, "voi": 25248, "gw": 25249, "bw": 25250, "tao": 25251, " nx": 25252, "wra": 25253, "yw": 25254, "¿": 25255, " vk": 25256, "ław": 25257, "ва": 25258, "pie": 25259, "]).": 25260, "gnu": 25261, "": 25262, "fav": 25263, " …”": 25264, "fro": 25265, "+:": 25266, " mj": 25267, "qw": 25268, "hoe": 25269, "okk": 25270, "chu": 25271, "🤎": 25272, "♥️": 25273, "tio": 25274, "hod": 25275, "χ": 25276, "eeg": 25277, " ≈": 25278, "🐦": 25279, " §": 25280, "ِه": 25281, ")+": 25282, "÷": 25283, "μα": 25284, "são": 25285, "⚕": 25286, "يع": 25287, ";<": 25288, "❄": 25289, "tei": 25290, "```": 25291, "kai": 25292, " في": 25293, "ურ": 25294, "€.": 25295, " :\"": 25296, "🎭": 25297, "ipy": 25298, "wis": 25299, "cec": 25300, "wiz": 25301, "_,": 25302, "evo": 25303, "ʊ": 25304, ")).": 25305, "igy": 25306, "😭😭": 25307, ".​​": 25308, "🔒": 25309, "🔧": 25310, "♻": 25311, " fg": 25312, "tof": 25313, "jug": 25314, ".^": 25315, "wyn": 25316, "ół": 25317, " vy": 25318, "이": 25319, "ás": 25320, "ánd": 25321, "🌎": 25322, "🍂": 25323, "cke": 25324, "axy": 25325, "){\\": 25326, " غ": 25327, "wat": 25328, "💛": 25329, "roh": 25330, "vot": 25331, "fty": 25332, " <-": 25333, "nee": 25334, "keg": 25335, "vie": 25336, " pv": 25337, "pah": 25338, "noj": 25339, "🐾": 25340, "unh": 25341, "ová": 25342, "ù": 25343, "▢": 25344, "ба": 25345, "gee": 25346, "apd": 25347, "âte": 25348, " с": 25349, "cpp": 25350, " hw": 25351, "َى": 25352, "ās": 25353, " kø": 25354, "◕": 25355, "⁰": 25356, "اق": 25357, "\"*": 25358, "xg": 25359, " yn": 25360, "☆": 25361, "ظ": 25362, "emd": 25363, "ы": 25364, "ryn": 25365, " ان": 25366, " );": 25367, "uhl": 25368, "ℓ": 25369, "?\".": 25370, "😒": 25371, "əs": 25372, " ре": 25373, "🖕": 25374, "ști": 25375, " \\\"": 25376, " *\"": 25377, "ｌ": 25378, " sj": 25379, "pag": 25380, "adc": 25381, "icc": 25382, "/%": 25383, " تَ": 25384, "ئ": 25385, "☟": 25386, "ρος": 25387, "р": 25388, "iça": 25389, "boh": 25390, "faf": 25391, "та": 25392, "sib": 25393, "avc": 25394, "🔁": 25395, "inr": 25396, "qt": 25397, "ę": 25398, "elj": 25399, " vx": 25400, "jda": 25401, "ɛ": 25402, " س": 25403, "iyê": 25404, "jaz": 25405, ".’”": 25406, "phr": 25407, "jb": 25408, "ς": 25409, "sao": 25410, " ++": 25411, "ʻ": 25412, "jub": 25413, "ء": 25414, "ً": 25415, "vus": 25416, "д": 25417, " \"[": 25418, "arh": 25419, "kve": 25420, "اء": 25421, " ²": 25422, "nud": 25423, " tə": 25424, "🆕": 25425, "chr": 25426, "jew": 25427, " xu": 25428, "ocr": 25429, ")\",": 25430, "rw": 25431, "ما": 25432, "vig": 25433, "ად": 25434, "cob": 25435, " -\"": 25436, "🤍": 25437, "rsa": 25438, "💎": 25439, " &#": 25440, "ūn": 25441, "ח": 25442, "eil": 25443, " ه": 25444, "ayv": 25445, "": 25446, "من": 25447, " رب": 25448, "َد": 25449, " ¾": 25450, " [\"": 25451, "aol": 25452, "xin": 25453, "gj": 25454, "«.": 25455, "}(": 25456, "zr": 25457, "smb": 25458, "ḫ": 25459, "snr": 25460, "lw": 25461, "😓": 25462, "():": 25463, "😂": 25464, "ffi": 25465, "ysk": 25466, "ijn": 25467, "√": 25468, "oci": 25469, "✌": 25470, "utr": 25471, "jud": 25472, "rpm": 25473, "paw": 25474, "mpl": 25475, "jia": 25476, "peh": 25477, "xvi": 25478, "aal": 25479, "🧡": 25480, "xel": 25481, "cô": 25482, "rte": 25483, "bst": 25484, "❣️": 25485, "aed": 25486, "პერ": 25487, "არ": 25488, "etf": 25489, ".\",": 25490, "п": 25491, "ง": 25492, "inx": 25493, "lur": 25494, " pj": 25495, "öö": 25496, " yg": 25497, "🎥": 25498, " ͡": 25499, "ifu": 25500, "pps": 25501, " zm": 25502, "‿": 25503, "ajo": 25504, "mst": 25505, "🫰": 25506, "aar": 25507, "thr": 25508, "آ": 25509, "ḏ": 25510, "mex": 25511, " xb": 25512, "γ": 25513, " gj": 25514, "➖": 25515, "ebo": 25516, "át": 25517, ")->": 25518, "ryl": 25519, "タイ": 25520, "ト": 25521, "psp": 25522, "eer": 25523, "ச": 25524, ".//": 25525, "[/": 25526, " ÷": 25527, "🍆": 25528, "iyu": 25529, "&&": 25530, "َّا": 25531, "🫶": 25532, " nn": 25533, "wes": 25534, "pj": 25535, "λος": 25536, "fv": 25537, "owy": 25538, " wu": 25539, "abh": 25540, " jm": 25541, " \"%": 25542, "¯": 25543, "➢": 25544, "🔬": 25545, "ohn": 25546, "weg": 25547, "🤌": 25548, "ths": 25549, "epo": 25550, "【": 25551, "nia": 25552, "umy": 25553, "obr": 25554, " \")": 25555, "اع": 25556, " dû": 25557, " ))": 25558, ".[/": 25559, "ús": 25560, "ور": 25561, "😢": 25562, "adl": 25563, " ¥": 25564, "\"/": 25565, "iov": 25566, "roe": 25567, "jt": 25568, " xm": 25569, "🤯": 25570, "🥀": 25571, "ისა": 25572, "ვ": 25573, "ოვ": 25574, "xz": 25575, " jb": 25576, "vih": 25577, "🦷": 25578, "🦋": 25579, "😀": 25580, "chs": 25581, "wg": 25582, "qx": 25583, "bew": 25584, "jad": 25585, "🍀": 25586, "🏛": 25587, "✏": 25588, "ład": 25589, "izh": 25590, "xan": 25591, "}.": 25592, "cpr": 25593, "ugs": 25594, "âu": 25595, "تم": 25596, "éu": 25597, "🌫": 25598, "lz": 25599, "(/": 25600, "↗": 25601, "=(": 25602, " φ": 25603, " ح": 25604, "epi": 25605, " zy": 25606, "amn": 25607, "(*": 25608, ":,": 25609, "🎶": 25610, "wür": 25611, " ذ": 25612, "ი": 25613, "აზ": 25614, " მი": 25615, "zwe": 25616, ";'": 25617, "nje": 25618, "=>": 25619, "trl": 25620, "lə": 25621, "fum": 25622, "pax": 25623, " rw": 25624, "oum": 25625, " å": 25626, "ijo": 25627, "loo": 25628, "〕": 25629, " ³": 25630, "█": 25631, "└": 25632, "acd": 25633, " xk": 25634, "†": 25635, "eal": 25636, "يم": 25637, "‚": 25638, "⬝": 25639, "zug": 25640, "tug": 25641, "🎵": 25642, "gx": 25643, "wor": 25644, "mrt": 25645, "♊": 25646, " бо": 25647, "də": 25648, "crs": 25649, "pw": 25650, "pca": 25651, " oo": 25652, "nex": 25653, " ou": 25654, "fug": 25655, "opr": 25656, "pwr": 25657, "ɾ": 25658, "ələ": 25659, "℃": 25660, "]^": 25661, "ysl": 25662, " 。": 25663, "⊃": 25664, "\\\"": 25665, "iej": 25666, "hae": 25667, "soa": 25668, "(&": 25669, "___": 25670, "🏽": 25671, "glo": 25672, ".”.": 25673, "َح": 25674, "💗": 25675, "sli": 25676, "mj": 25677, " rr": 25678, "oje": 25679, " !\"": 25680, "csr": 25681, "за": 25682, "↪": 25683, "gyi": 25684, "ät": 25685, "sds": 25686, "pow": 25687, "bai": 25688, "əl": 25689, "cmc": 25690, "dee": 25691, "lii": 25692, "nsp": 25693, "bef": 25694, "ysz": 25695, "ние": 25696, "🎤": 25697, "mov": 25698, "ρά": 25699, "ρεύ": 25700, " qe": 25701, "sth": 25702, "اد": 25703, " đ": 25704, "kup": 25705, "ε": 25706, "🌙": 25707, "ּ": 25708, "🤣": 25709, " bw": 25710, "💊": 25711, "ūd": 25712, "ffa": 25713, "wid": 25714, " ‚": 25715, "cki": 25716, "tob": 25717, "ɔ": 25718, "⊂": 25719, "ხ": 25720, " წ": 25721, " ღ": 25722, "შ": 25723, ".=": 25724, "xr": 25725, " px": 25726, "iez": 25727, "≥": 25728, "vox": 25729, "💨": 25730, "lx": 25731, " по": 25732, "💠": 25733, "æn": 25734, "pbs": 25735, "pea": 25736, "tus": 25737, "nq": 25738, "qz": 25739, "plc": 25740, "sio": 25741, "🌬": 25742, "🌞": 25743, " ما": 25744, "dup": 25745, "jc": 25746, " 😏": 25747, " *.": 25748, "🎀": 25749, "🌊": 25750, "hoz": 25751, "myl": 25752, "rew": 25753, "eep": 25754, "oyi": 25755, "egg": 25756, "dlc": 25757, " wf": 25758, "wik": 25759, "nze": 25760, "/+": 25761, ">.": 25762, "nib": 25763, "xon": 25764, "☹": 25765, "😶": 25766, "²,": 25767, "ūs": 25768, "urz": 25769, "ᵒ": 25770, "kra": 25771, "crr": 25772, "uez": 25773, "cpm": 25774, "dao": 25775, "dz": 25776, "ِب": 25777, "ლის": 25778, "ყ": 25779, "рон": 25780, " <=": 25781, "jus": 25782, "iex": 25783, " до": 25784, "🎄": 25785, "mə": 25786, "ntl": 25787, "/>": 25788, "ция": 25789, "َر": 25790, "dyn": 25791, "*-": 25792, " -.": 25793, "uid": 25794, " [[": 25795, "ibh": 25796, "َس": 25797, "♠": 25798, " qs": 25799, "kka": 25800, "wav": 25801, "mou": 25802, "dze": 25803, "ulz": 25804, "acu": 25805, " 😎": 25806, "dst": 25807, "عم": 25808, "kaa": 25809, "wie": 25810, "ב": 25811, "🥭": 25812, "📜": 25813, "äll": 25814, "وم": 25815, "élé": 25816, "ccc": 25817, "ppm": 25818, "jy": 25819, "]*": 25820, "ún": 25821, "wit": 25822, " sé": 25823, " б": 25824, "ות": 25825, ":|": 25826, "uut": 25827, "rho": 25828, "tod": 25829, "hä": 25830, "łat": 25831, "вые": 25832, " п": 25833, " бе": 25834, "xis": 25835, "nhs": 25836, "whi": 25837, " ä": 25838, "fts": 25839, "apb": 25840, "owl": 25841, "uas": 25842, " і": 25843, "gmt": 25844, "zp": 25845, "#:": 25846, "stm": 25847, "^^": 25848, "xii": 25849, "/@": 25850, "().": 25851, "🩷": 25852, "yeh": 25853, "г": 25854, "jz": 25855, "на": 25856, "ο": 25857, "🗣": 25858, "‭": 25859, "pav": 25860, ",,,": 25861, "daw": 25862, ").*": 25863, "žen": 25864, ".*\\": 25865, "urr": 25866, "csa": 25867, "eby": 25868, "xiv": 25869, ",+": 25870, "َرْ": 25871, "ζ": 25872, "xk": 25873, "mys": 25874, "🙈": 25875, "jx": 25876, "bao": 25877, "اف": 25878, "hhh": 25879, "لو": 25880, "κ": 25881, "💁": 25882, "usr": 25883, "\"]": 25884, "🛡": 25885, " مُ": 25886, "رو": 25887, " zh": 25888, " $(": 25889, "sca": 25890, "wap": 25891, "loh": 25892, "amc": 25893, "sq": 25894, "(+": 25895, "او": 25896, "რ": 25897, "✉": 25898, "igs": 25899, "gui": 25900, "kou": 25901, "nsk": 25902, "spi": 25903, "🇦": 25904, "_<": 25905, "🔔": 25906, "gue": 25907, "dej": 25908, "hue": 25909, "😭": 25910, "upe": 25911, "ни": 25912, "bj": 25913, "rq": 25914, "éro": 25915, "mât": 25916, "-‘": 25917, "ár": 25918, " și": 25919, "🏢": 25920, "رب": 25921, "juk": 25922, "oye": 25923, "unj": 25924, "oui": 25925, "ogi": 25926, "^\\": 25927, "idn": 25928, "˘": 25929, "📐": 25930, " gv": 25931, ".﻿": 25932, "ajt": 25933, " ?)": 25934, "🐶": 25935, "vib": 25936, "ixe": 25937, "ökk": 25938, "**)": 25939, ";,": 25940, "=%": 25941, "[[": 25942, "'),": 25943, "πα": 25944, " بن": 25945, "nul": 25946, "ujo": 25947, "dic": 25948, "ميل": 25949, "==": 25950, "kyo": 25951, "🙃": 25952, "¹": 25953, "yya": 25954, "}\\,": 25955, " اُ": 25956, " შ": 25957, "ზ": 25958, "გ": 25959, "ოლ": 25960, " შე": 25961, "ту": 25962, "ppp": 25963, "nep": 25964, "elu": 25965, " sq": 25966, "uje": 25967, "bcc": 25968, "ɡ": 25969, "iab": 25970, "`(": 25971, " fv": 25972, "▫": 25973, "smo": 25974, "īg": 25975, "مر": 25976, "''.": 25977, "mok": 25978, "ær": 25979, " då": 25980, "hsv": 25981, "ivr": 25982, "ʰ": 25983, "cts": 25984, "})": 25985, "sx": 25986, "hq": 25987, ".$": 25988, "﹃": 25989, "≦": 25990, "ᴗ": 25991, "̌": 25992, "ﾉ": 25993, "꒰": 25994, "꒱": 25995, "ḍ": 25996, " إص": 25997, "”]": 25998, "🖌": 25999, "ný": 26000, "τό": 26001, "'>": 26002, "zap": 26003, "🍹": 26004, "amg": 26005, "ixo": 26006, " $:": 26007, "yaw": 26008, "😎": 26009, "حر": 26010, " ow": 26011, " ": 26012, "oce": 26013, "♋": 26014, " wb": 26015, "نات": 26016, "كر": 26017, "jh": 26018, "éf": 26019, "ngl": 26020, " iw": 26021, "xf": 26022, " cé": 26023, ",:": 26024, "ις": 26025, "dym": 26026, "wz": 26027, "yld": 26028, "га": 26029, " (/": 26030, "ή": 26031, "=’": 26032, "³,": 26033, " ā": 26034, "zee": 26035, "⚠": 26036, "ло": 26037, "?),": 26038, "♬": 26039, "🐕": 26040, "$+": 26041, "ʺ": 26042, " мо": 26043, "ер": 26044, "ин": 26045, " مج": 26046, "": 26047, " nə": 26048, "³)": 26049, "﹏": 26050, "◉": 26051, "āk": 26052, "ಠ": 26053, "gä": 26054, " hj": 26055, "abv": 26056, "îte": 26057, "cft": 26058, "̔": 26059, "𝖙": 26060, "ujj": 26061, "ｖ": 26062, "ｅ": 26063, " (&": 26064, "exo": 26065, ",@": 26066, "iae": 26067, "adp": 26068, "pq": 26069, "の": 26070, "ْس": 26071, "اي": 26072, "ۜ": 26073, "jr": 26074, "zuc": 26075, "и": 26076, " за": 26077, "🕒": 26078, "gae": 26079, "žić": 26080, "dob": 26081, " ')": 26082, "📸": 26083, "👧": 26084, "oea": 26085, "él": 26086, "rí": 26087, " wk": 26088, "([": 26089, " },": 26090, " lv": 26091, "xh": 26092, "khz": 26093, "cbc": 26094, "lée": 26095, "qf": 26096, "ōn": 26097, "fai": 26098, " '\\": 26099, " ¹": 26100, "т": 26101, "/[": 26102, "ρε": 26103, " ff": 26104, "lj": 26105, " ء": 26106, "🏃": 26107, "luv": 26108, "￼": 26109, "ود": 26110, "🏕": 26111, "⛰": 26112, "➡": 26113, "": 26114, " (~": 26115, "few": 26116, "ogy": 26117, "ozo": 26118, "pmg": 26119, "ék": 26120, "َّ": 26121, ":-)": 26122, "mls": 26123, "კ": 26124, "თ": 26125, " მე": 26126, " მ": 26127, "ეს": 26128, "ია": 26129, " და": 26130, "reo": 26131, "../": 26132, "nbr": 26133, "🍦": 26134, "bsd": 26135, "pia": 26136, "rda": 26137, "🇮": 26138, "ķ": 26139, "🌳": 26140, "seq": 26141, "lej": 26142, "!”.": 26143, "gag": 26144, "hez": 26145, "trt": 26146, "دار": 26147, "alq": 26148, ";/": 26149, "ᾶ": 26150, "vos": 26151, "zf": 26152, "ifr": 26153, "(+)": 26154, "hov": 26155, "èle": 26156, "gq": 26157, "gga": 26158, "خدم": 26159, "اب": 26160, "ijl": 26161, "tty": 26162, "(.": 26163, "%),": 26164, "🧿": 26165, "▷": 26166, "😂😂": 26167, "tie": 26168, "svc": 26169, "💪": 26170, "udy": 26171, ",--": 26172, "🚗": 26173, "éry": 26174, "gmp": 26175, "ikv": 26176, "zew": 26177, "jax": 26178, "😻": 26179, "与": 26180, "sla": 26181, "ryk": 26182, "rym": 26183, " lf": 26184, "āl": 26185, "ős": 26186, " ß": 26187, "מ": 26188, "ssh": 26189, "mbh": 26190, "tj": 26191, "_.": 26192, "jol": 26193, "😮": 26194, "😳": 26195, "🐣": 26196, "qué": 26197, "ssc": 26198, "…).": 26199, "zut": 26200, "pee": 26201, " ?\"": 26202, " ،": 26203, "yao": 26204, "asn": 26205, "skl": 26206, "ُن": 26207, "ტი": 26208, "ნ": 26209, " ბ": 26210, "მა": 26211, " {\\": 26212, "ccd": 26213, "¢": 26214, "kow": 26215, "ˌ": 26216, "kee": 26217, "owo": 26218, "aic": 26219, " -,": 26220, "sod": 26221, "vhs": 26222, "ξ": 26223, "'?": 26224, "ewo": 26225, "₤": 26226, "͠": 26227, "clc": 26228, " “,": 26229, "🧹": 26230, "lst": 26231, " %.": 26232, " îl": 26233, " 》": 26234, "¡": 26235, "ča": 26236, "μ": 26237, "_-": 26238, "lij": 26239, "——": 26240, "мо": 26241, "fyp": 26242, " !)": 26243, "cau": 26244, " ?.": 26245, "يك": 26246, "♌": 26247, "či": 26248, "فة": 26249, "afu": 26250, "ibt": 26251, "),\"": 26252, "فور": 26253, " رح": 26254, " kj": 26255, "-+": 26256, "maq": 26257, "vct": 26258, "ные": 26259, "'',": 26260, " :=": 26261, "adn": 26262, "ēs": 26263, "axe": 26264, "tsc": 26265, "mae": 26266, " λ": 26267, "əd": 26268, "ш": 26269, "ël": 26270, "]{": 26271, "\u0001": 26272, "esz": 26273, "сы": 26274, " lí": 26275, "ią": 26276, "вки": 26277, " mó": 26278, "boa": 26279, "💥": 26280, "ijd": 26281, "mcc": 26282, "🚪": 26283, " │": 26284, "iob": 26285, "": 26286, "kj": 26287, "••": 26288, "➔": 26289, "asz": 26290, "apm": 26291, "eol": 26292, " не": 26293, "atc": 26294, "ؤ": 26295, "ndc": 26296, "ibs": 26297, ".],": 26298, "❗️": 26299, "+]": 26300, "<\\": 26301, "xer": 26302, "!!”": 26303, " ό": 26304, "μο": 26305, "✋": 26306, "jpy": 26307, "🛍": 26308, "🏥": 26309, "🏗": 26310, "keh": 26311, " âg": 26312, "sou": 26313, " gf": 26314, "añ": 26315, "🚜": 26316, "🎟": 26317, "🚬": 26318, "”!": 26319, "صل": 26320, " ##": 26321, "🎲": 26322, ")],": 26323, ")~": 26324, " rk": 26325, " pö": 26326, "ouz": 26327, "وف": 26328, " д": 26329, "ṯ": 26330, "κα": 26331, ".(*": 26332, "%;": 26333, "ٔ": 26334, "ו": 26335, ")}}": 26336, "🗺": 26337, "😜": 26338, " ð": 26339, "fq": 26340, "nth": 26341, "csc": 26342, " '.": 26343, "aac": 26344, "hii": 26345, "ños": 26346, "ته": 26347, "ʁ": 26348, "_)": 26349, "💋": 26350, "ავ": 26351, "ძ": 26352, "ათ": 26353, "ველ": 26354, "⬤": 26355, "pch": 26356, "éon": 26357, "😞": 26358, "🇱": 26359, "kst": 26360, "🧊": 26361, "ūk": 26362, "rā": 26363, "fru": 26364, "ון": 26365, "boe": 26366, "msk": 26367, "rj": 26368, "qp": 26369, "🥗": 26370, "🍎": 26371, "🍼": 26372, "🥣": 26373, "🌡": 26374, "🧘": 26375, "هَا": 26376, "uhe": 26377, " �": 26378, "tki": 26379, "요": 26380, "😱": 26381, " √": 26382, "\":\"": 26383, "🌲": 26384, "🏷": 26385, " '-": 26386, " kz": 26387, "ieb": 26388, "(),": 26389, "”—": 26390, "يه": 26391, " 爱": 26392, "命": 26393, "彼": 26394, "端": 26395, "”-": 26396, ",?": 26397, " gg": 26398, "°-": 26399, "saa": 26400, "hna": 26401, "ean": 26402, "🧑": 26403, " jc": 26404, "？": 26405, "cce": 26406, "ühl": 26407, " )(": 26408, " −": 26409, "🧧": 26410, "kaj": 26411, "acp": 26412, "+\"": 26413, "💅": 26414, "áz": 26415, "čar": 26416, "'))": 26417, "sfr": 26418, "ijk": 26419, "tq": 26420, "الد": 26421, " @_": 26422, "nio": 26423, "mug": 26424, "cka": 26425, "لاء": 26426, "را": 26427, " zl": 26428, "qg": 26429, "į": 26430, "∙": 26431, "esg": 26432, "♎": 26433, "👈": 26434, "🐱": 26435, "🍳": 26436, "。”": 26437, "ელ": 26438, "ერ": 26439, " უ": 26440, "ლი": 26441, " დ": 26442, "რი": 26443, "არი": 26444, "ონ": 26445, "се": 26446, "thi": 26447, "🗞": 26448, "=\\": 26449, "😩": 26450, "asf": 26451, "💓": 26452, "..(": 26453, "yny": 26454, "qe": 26455, " kā": 26456, " ='": 26457, ".'”": 26458, " $.": 26459, "tyr": 26460, ".'\"": 26461, "yii": 26462, "ȋ": 26463, "czy": 26464, "≈": 26465, " ?,": 26466, " [/": 26467, " uj": 26468, " cô": 26469, " €,": 26470, "agt": 26471, "sph": 26472, ".??": 26473, "🧺": 26474, "︾": 26475, " 『": 26476, "✚": 26477, "｀": 26478, "ᴥ": 26479, "akn": 26480, "": 26481, "🔑": 26482, "": 26483, "gha": 26484, "فتح": 26485, "📑": 26486, "snl": 26487, "(:": 26488, "\\.": 26489, "beh": 26490, "tsk": 26491, " فَ": 26492, "αν": 26493, "⚽": 26494, "ノ": 26495, " (?": 26496, "aub": 26497, "☝": 26498, "éri": 26499, " ],": 26500, "ко": 26501, "̲": 26502, "kts": 26503, "baj": 26504, "há": 26505, "❂": 26506, " +,": 26507, "א": 26508, "kva": 26509, "ñez": 26510, " ز": 26511, "اح": 26512, " ام": 26513, "يا": 26514, "لم": 26515, " لن": 26516, "اذ": 26517, " قل": 26518, "خل": 26519, "صر": 26520, "به": 26521, "انا": 26522, "hno": 26523, "》": 26524, "šev": 26525, "pct": 26526, "dle": 26527, "upu": 26528, "xim": 26529, "üe": 26530, "cie": 26531, "awy": 26532, "$$": 26533, "⁻": 26534, "⁶": 26535, "ِيم": 26536, "❔": 26537, " />": 26538, "iß": 26539, "edt": 26540, "cpc": 26541, ">]": 26542, "📽": 26543, "cja": 26544, " ý": 26545, "āv": 26546, "ivu": 26547, "ά": 26548, "🔵": 26549, " צ": 26550, " של": 26551, "🍩": 26552, "ɯ": 26553, "jö": 26554, "gob": 26555, "𐰀": 26556, ".`": 26557, "csp": 26558, " ,\"": 26559, " з": 26560, "ór": 26561, "вок": 26562, "jne": 26563, " н": 26564, "ты": 26565, " вы": 26566, "راه": 26567, "как": 26568, "🥹": 26569, "່": 26570, "ರ": 26571, "❇": 26572, ":`": 26573, " آ": 26574, "ذر": 26575, "گان": 26576, "hut": 26577, "♛": 26578, "‥": 26579, "♚": 26580, "♩": 26581, "⊡": 26582, "┌": 26583, "♤": 26584, "🕑": 26585, "sst": 26586, " á": 26587, " θ": 26588, "₃": 26589, "mcg": 26590, "͡": 26591, "taa": 26592, "ohm": 26593, "бо": 26594, "ʃ": 26595, "ũ": 26596, " ſ": 26597, "gst": 26598, "pho": 26599, "(**": 26600, "зор": 26601, " ➤": 26602, "ски": 26603, " [*": 26604, "ihe": 26605, " hq": 26606, " uw": 26607, "tps": 26608, "ф": 26609, "άζ": 26610, " ο": 26611, "🚶": 26612, "🍮": 26613, "fog": 26614, "čić": 26615, "vić": 26616, " lj": 26617, "oup": 26618, "chf": 26619, "!\")": 26620, "iaa": 26621, "zx": 26622, " \",": 26623, "rms": 26624, "wet": 26625, "🇬": 26626, "💃": 26627, "zq": 26628, "👆": 26629, "cnr": 26630, " ?-": 26631, " bê": 26632, " jî": 26633, "}/": 26634, "}}}": 26635, "ccp": 26636, "aul": 26637, "_\\": 26638, "hmm": 26639, "͂": 26640, "مع": 26641, " +-": 26642, " (:": 26643, "hla": 26644, "tgf": 26645, "oos": 26646, "י": 26647, "ά": 26648, ":::": 26649, "oug": 26650, " bé": 26651, "٢": 26652, "נ": 26653, "ֹ": 26654, "bei": 26655, " tz": 26656, "اله": 26657, "].[": 26658, "اس": 26659, "助": 26660, "sgd": 26661, "fic": 26662, "sdl": 26663, "åt": 26664, "ە": 26665, "ან": 26666, " რ": 26667, "ც": 26668, "ულ": 26669, "kog": 26670, "tbs": 26671, " ê": 26672, "jna": 26673, " '(": 26674, "🇪": 26675, "тро": 26676, "?).": 26677, "ecc": 26678, "ís": 26679, "🙏🙏": 26680, "ק": 26681, "ري": 26682, "ofs": 26683, "gli": 26684, "كو": 26685, "oty": 26686, "spo": 26687, "🧪": 26688, "🏅": 26689, " ين": 26690, "ِين": 26691, "})\\": 26692, "ohy": 26693, "lls": 26694, "fcc": 26695, "ēn": 26696, ".\".": 26697, "🍋": 26698, "з": 26699, "kne": 26700, "%).": 26701, "아": 26702, "/<": 26703, "-_": 26704, "vej": 26705, "llo": 26706, "🩺": 26707, "qk": 26708, "bae": 26709, "🎂": 26710, "🚴": 26711, "°,": 26712, ")}": 26713, "jih": 26714, "egy": 26715, "gub": 26716, "úl": 26717, "🍫": 26718, "npc": 26719, "zym": 26720, "😥": 26721, "🤞": 26722, "جر": 26723, "◀": 26724, "]+": 26725, "cei": 26726, "ío": 26727, "ṇ": 26728, "aré": 26729, "iou": 26730, "🥈": 26731, "nym": 26732, "🐼": 26733, "👑": 26734, "pcm": 26735, " wr": 26736, "🌄": 26737, "💶": 26738, "xd": 26739, "qd": 26740, "ль": 26741, "мы": 26742, "īn": 26743, " 😂😂": 26744, "!\",": 26745, "wai": 26746, "voc": 26747, "dau": 26748, "mps": 26749, "vag": 26750, "を": 26751, " \\,": 26752, "ახ": 26753, "ვის": 26754, "გან": 26755, "ექ": 26756, "ანი": 26757, "უბ": 26758, "ილ": 26759, "უ": 26760, " ჯ": 26761, "ები": 26762, "ისი": 26763, " hə": 26764, ";\">": 26765, "ǎ": 26766, "())": 26767, "🎬": 26768, "🐢": 26769, "🎇": 26770, "nms": 26771, "٤": 26772, "xor": 26773, "trs": 26774, "بر": 26775, "🖐": 26776, "ро": 26777, "📧": 26778, "dq": 26779, "：": 26780, "lui": 26781, ".].": 26782, "éc": 26783, "♓": 26784, " [(": 26785, "ُول": 26786, "̱": 26787, "mve": 26788, " bf": 26789, " wg": 26790, "?',": 26791, " (^": 26792, "poc": 26793, "kx": 26794, "trk": 26795, "scp": 26796, "𝗶": 26797, "🧭": 26798, "📕": 26799, "rrh": 26800, "∅": 26801, "ʖ": 26802, "◡": 26803, "┳": 26804, ".,\"": 26805, "nub": 26806, " *)": 26807, ":~": 26808, "روض": 26809, "zou": 26810, "🧾": 26811, "✿": 26812, "kde": 26813, "'''": 26814, "+/": 26815, ">\"": 26816, "\"/>": 26817, "uad": 26818, "📶": 26819, "ա": 26820, "ogr": 26821, "ême": 26822, "änd": 26823, "ecs": 26824, "\"!": 26825, "usz": 26826, "abt": 26827, "iné": 26828, " от": 26829, "ти": 26830, "myc": 26831, "👽": 26832, "nyc": 26833, "hms": 26834, "clo": 26835, "ги": 26836, "тов": 26837, "pyr": 26838, "ße": 26839, " mé": 26840, " dé": 26841, "áš": 26842, "♍": 26843, "dsp": 26844, "ctu": 26845, "ćen": 26846, "ymo": 26847, "الي": 26848, " تن": 26849, " ذه": 26850, "له": 26851, "pz": 26852, "mcs": 26853, " 💞": 26854, "xes": 26855, "iep": 26856, "وح": 26857, "/]": 26858, "لس": 26859, "ʀ": 26860, "]],": 26861, "vog": 26862, " \"@": 26863, "lá": 26864, "άλ": 26865, "δια": 26866, "dda": 26867, "nmr": 26868, "阿": 26869, "cq": 26870, "äck": 26871, "}$": 26872, "++.": 26873, "͟": 26874, "🟠": 26875, "elv": 26876, "چ": 26877, "ryw": 26878, "📬": 26879, "ρα": 26880, "/~": 26881, " rj": 26882, "imh": 26883, "ви": 26884, "🤨": 26885, "🚢": 26886, "huy": 26887, "ཨ": 26888, " ^{": 26889, "crc": 26890, "ità": 26891, "↩": 26892, "ну": 26893, "ход": 26894, "де": 26895, "дом": 26896, "ᐈ": 26897, "ą": 26898, " же": 26899, "во": 26900, "гро": 26901, "تح": 26902, "вин": 26903, "wah": 26904, "cky": 26905, "wic": 26906, "geg": 26907, "💩": 26908, "🏫": 26909, "===": 26910, "][/": 26911, "∩": 26912, "esd": 26913, "☰": 26914, "(^": 26915, "æss": 26916, "pou": 26917, "🧚": 26918, "й": 26919, "liu": 26920, " √(": 26921, "🐊": 26922, "mda": 26923, "➣": 26924, "₅": 26925, ",&": 26926, "icp": 26927, "äle": 26928, "äus": 26929, " dg": 26930, "otc": 26931, "cj": 26932, "pts": 26933, "ít": 26934, ":&": 26935, "cmr": 26936, "omg": 26937, "voj": 26938, "л": 26939, " فر": 26940, "قه": 26941, "وب": 26942, "olz": 26943, "axa": 26944, "crt": 26945, "wee": 26946, "ща": 26947, "рен": 26948, "ар": 26949, "φο": 26950, "νο": 26951, "εις": 26952, "να": 26953, "poi": 26954, "🧥": 26955, "🗨": 26956, "🚫": 26957, "¥": 26958, "пи": 26959, "ца": 26960, "ла": 26961, "ić": 26962, "hew": 26963, "(?": 26964, "uyi": 26965, "神": 26966, " də": 26967, " }\\": 26968, "dra": 26969, " +=": 26970, "ndt": 26971, "uco": 26972, " `/": 26973, "`,": 26974, "🇧": 26975, "": 26976, "pup": 26977, "tuy": 26978, "zub": 26979, " tä": 26980, "voa": 26981, " vê": 26982, " în": 26983, "{{{": 26984, "**.": 26985, " bx": 26986, "🕓": 26987, " №": 26988, "τ": 26989, "äl": 26990, "uir": 26991, " دو": 26992, "mnt": 26993, " τ": 26994, "]/": 26995, " κ": 26996, "τα": 26997, " לי": 26998, "נט": 26999, " מ": 27000, " ד": 27001, "ָ": 27002, "ִ": 27003, " 👀": 27004, "🕐": 27005, "وار": 27006, "قط": 27007, "🚵": 27008, "만": 27009, "기": 27010, "leu": 27011, " μ": 27012, "tau": 27013, "👻": 27014, " ال": 27015, "⁉": 27016, "ugh": 27017, "🎞": 27018, " ue": 27019, "ycl": 27020, "hsl": 27021, "mio": 27022, " có": 27023, "بسم": 27024, "اني": 27025, "قد": 27026, " لم": 27027, "الت": 27028, " قد": 27029, "ynd": 27030, " <>": 27031, "̃": 27032, "coh": 27033, "ㅋㅋㅋ": 27034, " ℝ": 27035, "♣": 27036, "hto": 27037, "ობ": 27038, "ვა": 27039, "ჲ": 27040, " სა": 27041, " ს": 27042, "ℹ": 27043, " kc": 27044, "ête": 27045, " mū": 27046, "cog": 27047, "ogl": 27048, "ør": 27049, "wir": 27050, " \"!": 27051, "byt": 27052, "uci": 27053, "צ": 27054, "ág": 27055, "🌻": 27056, "🏭": 27057, "📏": 27058, "ول": 27059, "req": 27060, "🍯": 27061, "ihr": 27062, "↔": 27063, "hcl": 27064, "을": 27065, "│": 27066, "/;": 27067, "ctl": 27068, "awr": 27069, "🔟": 27070, "ט": 27071, "igr": 27072, " ys": 27073, "eck": 27074, "+(": 27075, "###": 27076, "∘": 27077, "={\\": 27078, "gew": 27079, "ند": 27080, " إ": 27081, "⇔": 27082, "@@": 27083, "خص": 27084, " لك": 27085, "لق": 27086, " ij": 27087, "eas": 27088, " lw": 27089, "της": 27090, "où": 27091, ")=-": 27092, "ète": 27093, "ז": 27094, "ч": 27095, "ň": 27096, "wx": 27097, "😐": 27098, ",<": 27099, ".\"—": 27100, " ¿": 27101, "ĝ": 27102, "(<": 27103, "يرة": 27104, "qus": 27105, "ре": 27106, "ví": 27107, "фи": 27108, "%\"": 27109, "€™": 27110, "dof": 27111, " ‬": 27112, "📀": 27113, "iai": 27114, "➽": 27115, "⚒": 27116, "gek": 27117, ">'": 27118, "dpi": 27119, "gom": 27120, "・": 27121, "🚌": 27122, "}'": 27123, "ní": 27124, "ě": 27125, "ί": 27126, "ła": 27127, "وة": 27128, "bly": 27129, " გ": 27130, "იდ": 27131, "ფ": 27132, "ებთ": 27133, "ას": 27134, "უქ": 27135, "უფ": 27136, " ტ": 27137, "ეგ": 27138, " მო": 27139, "ქმ": 27140, "რის": 27141, "ით": 27142, "დი": 27143, "და": 27144, "ტ": 27145, "ჩ": 27146, "აბ": 27147, "ანს": 27148, "ება": 27149, "წყ": 27150, "არს": 27151, "ен": 27152, "ная": 27153, " >=": 27154, "'}": 27155, "}=": 27156, "⏱": 27157, "eah": 27158, "hui": 27159, "mé": 27160, "_/": 27161, "😪": 27162, "ְ": 27163, "ר": 27164, "cko": 27165, " （": 27166, "ř": 27167, "про": 27168, "'/": 27169, "íp": 27170, "رة": 27171, "âge": 27172, "sld": 27173, "華": 27174, "xj": 27175, " \"*": 27176, " ə": 27177, "زل": 27178, "udp": 27179, "あ": 27180, " hø": 27181, " hå": 27182, "icl": 27183, "ۖ": 27184, "َص": 27185, "🖖": 27186, "».": 27187, "😵": 27188, "wv": 27189, " gé": 27190, " #:": 27191, "²/": 27192, "《": 27193, "︽": 27194, "░": 27195, "✘": 27196, "﷼": 27197, "͜": 27198, "┻": 27199, "ｏ": 27200, "︹": 27201, " ♪": 27202, "cif": 27203, "ди": 27204, " سي": 27205, "、": 27206, "»;": 27207, "mrs": 27208, " él": 27209, "öff": 27210, "ң": 27211, "/_": 27212, "clk": 27213, "nts": 27214, " zg": 27215, "wak": 27216, " ł": 27217, "╮": 27218, "nyi": 27219, " $$": 27220, "ė": 27221, "cfg": 27222, "wey": 27223, "φή": 27224, "emn": 27225, "+%": 27226, " (€": 27227, "dye": 27228, " ≥": 27229, " jt": 27230, "kha": 27231, "%:": 27232, "🪄": 27233, "('\\": 27234, "ghe": 27235, "💔": 27236, "🔻": 27237, "🧨": 27238, "smt": 27239, "🫡": 27240, "cee": 27241, "ák": 27242, "♉": 27243, "'!": 27244, "ché": 27245, "📩": 27246, "الح": 27247, "😗": 27248, "قف": 27249, "لي": 27250, "ْع": 27251, "خذ": 27252, " ظ": 27253, " ض": 27254, "لى": 27255, "وان": 27256, "صير": 27257, "وند": 27258, " مد": 27259, "الم": 27260, "فى": 27261, "كل": 27262, "يت": 27263, "^{-": 27264, "∫": 27265, "цию": 27266, "ič": 27267, "uot": 27268, "mao": 27269, "lld": 27270, "=_": 27271, " zz": 27272, "ére": 27273, "شفى": 27274, " تر": 27275, "جي": 27276, "مت": 27277, "حدث": 27278, " ٢": 27279, "٠": 27280, "το": 27281, "🕰": 27282, "sau": 27283, "typ": 27284, "mpi": 27285, "gbt": 27286, "ْد": 27287, "ος": 27288, "roa": 27289, "xty": 27290, "ét": 27291, " [<": 27292, "⁴": 27293, " bá": 27294, " ∂": 27295, "yki": 27296, " sə": 27297, "mog": 27298, "🤢": 27299, "🤮": 27300, "øn": 27301, "áss": 27302, "σω": 27303, "jg": 27304, "אי": 27305, ">),": 27306, "♨": 27307, "aua": 27308, "odt": 27309, "êm": 27310, "₄": 27311, "➝": 27312, "ätz": 27313, "😏": 27314, "jpe": 27315, " oü": 27316, "vue": 27317, "𐰃": 27318, "phd": 27319, "😟": 27320, "hny": 27321, "🥂": 27322, "ли": 27323, "гры": 27324, "ции": 27325, "нус": 27326, "шие": 27327, "сом": 27328, "ją": 27329, "əri": 27330, " př": 27331, "ска": 27332, " কি": 27333, "ź": 27334, " ф": 27335, "йте": 27336, "نز": 27337, " ле": 27338, "ión": 27339, "qda": 27340, "σο": 27341, "acr": 27342, "💝": 27343, "ши": 27344, "′,": 27345, "رير": 27346, "ês": 27347, "*(": 27348, "ἀ": 27349, "τή": 27350, "عت": 27351, "yrs": 27352, " ﷺ": 27353, "pgs": 27354, "ənd": 27355, "😨": 27356, " fw": 27357, "ecu": 27358, " ≠": 27359, "kda": 27360, "tov": 27361, "əsi": 27362, "金": 27363, ",\"%": 27364, "\".\"": 27365, "xie": 27366, "ﻴ": 27367, "ﺎ": 27368, "ﺕ": 27369, "⁂": 27370, "⊕": 27371, "ツ": 27372, " ω": 27373, "➟": 27374, "₦": 27375, " 《": 27376, "♧": 27377, " ψ": 27378, "∇": 27379, "▀": 27380, "ヾ": 27381, "‾": 27382, "͞": 27383, "̿": 27384, "▩": 27385, "▣": 27386, "✡": 27387, "fia": 27388, "🥉": 27389, "})}": 27390, "}-": 27391, "ეთ": 27392, "ოში": 27393, "са": 27394, "🧙": 27395, "чи": 27396, "⁣⁣": 27397, "âts": 27398, "🤘": 27399, "▸": 27400, "🎰": 27401, " ∑": 27402, "❀": 27403, "✬": 27404, "〉": 27405, "ʕ": 27406, "ʔ": 27407, "＼": 27408, "｡": 27409, "àn": 27410, ")/(": 27411, "цин": 27412, "лый": 27413, " mz": 27414, "🌵": 27415, "aña": 27416, " \\&": 27417, "ｉ": 27418, "ａ": 27419, "ｕ": 27420, "ｇ": 27421, "ｈ": 27422, "₁": 27423, "של": 27424, "éct": 27425, ")}\\": 27426, ",_": 27427, "ähr": 27428, "ſ": 27429, "#.": 27430, "ltr": 27431, " pé": 27432, "家": 27433, "вый": 27434, "му": 27435, " ко": 27436, "eis": 27437, " :'": 27438, "mck": 27439, "─": 27440, "eux": 27441, "тил": 27442, " ин": 27443, "ор": 27444, "ολ": 27445, "τέ": 27446, " το": 27447, "ζει": 27448, " χώ": 27449, "τε": 27450, " /*": 27451, "нка": 27452, " ка": 27453, "voz": 27454, " ::": 27455, " wt": 27456, " 风": 27457, "dé": 27458, "agd": 27459, "rdf": 27460, "(){": 27461, "muj": 27462, "eec": 27463, "📂": 27464, "♾": 27465, "șt": 27466, "ewa": 27467, " hê": 27468, "حت": 27469, ".~": 27470, "pls": 27471, "bx": 27472, " ``": 27473, "``": 27474, "💵": 27475, "((\\": 27476, "نيا": 27477, "ác": 27478, "ת": 27479, "̄": 27480, "áp": 27481, "jv": 27482, " mê": 27483, "الة": 27484, "ént": 27485, "ש": 27486, "ד": 27487, "ג": 27488, "ן": 27489, "pbx": 27490, "auj": 27491, "вер": 27492, "الب": 27493, "έ": 27494, "φα": 27495, "ον": 27496, "cns": 27497, "mbr": 27498, "رد": 27499, "💉": 27500, "أم": 27501, "الط": 27502, "يبة": 27503, ":$": 27504, "tgt": 27505, "قة": 27506, "kys": 27507, "ssk": 27508, ",/": 27509, "nań": 27510, "cds": 27511, "是一款": 27512, "⅔": 27513, "acf": 27514, "💟": 27515, "nae": 27516, "`;": 27517, "ď": 27518, "\"?": 27519, " 하": 27520, " 신": 27521, "soo": 27522, "bq": 27523, "وسف": 27524, "غط": 27525, "lä": 27526, "swa": 27527, "äg": 27528, " är": 27529, "hj": 27530, " კ": 27531, "ასი": 27532, " ცი": 27533, "ეკ": 27534, "თა": 27535, "đ": 27536, "fov": 27537, "🥴": 27538, ";#": 27539, " lê": 27540, "🇨": 27541, "🇳": 27542, "🇩": 27543, "🇵": 27544, "ха": 27545, " */": 27546, "bsc": 27547, "zok": 27548, " bū": 27549, " =\\": 27550, "حي": 27551, "zyn": 27552, "🩸": 27553, "💭": 27554, "qar": 27555, "fei": 27556, " hé": 27557, "tow": 27558, "mev": 27559, "jai": 27560, "chk": 27561, "-[": 27562, "bfs": 27563, " ჩ": 27564, "აქ": 27565, "ული": 27566, "町": 27567, "zés": 27568, "áf": 27569, " ég": 27570, "ők": 27571, " fé": 27572, " né": 27573, " să": 27574, "ți": 27575, "ăl": 27576, "ț": 27577, "🔷": 27578, "🌤": 27579, "فق": 27580, "رز": 27581, "ئن": 27582, "مس": 27583, " لا": 27584, " أَ": 27585, "🦢": 27586, "💳": 27587, "npm": 27588, "`)": 27589, "‰": 27590, "zzo": 27591, "owi": 27592, "_(": 27593, "🖊": 27594, " ln": 27595, "그": 27596, "하지": 27597, " 없어": 27598, "가": 27599, " 나": 27600, " 말": 27601, " 안": 27602, "비": 27603, "입": 27604, " 유": 27605, " 당신": 27606, "ſe": 27607, "kwh": 27608, " ∈": 27609, "🏙": 27610, "≅": 27611, "jah": 27612, "qb": 27613, "axs": 27614, " ■": 27615, " hä": 27616, "☯": 27617, "myt": 27618, "اص": 27619, "itc": 27620, "☃": 27621, "rhe": 27622, "ɜ": 27623, "σί": 27624, "ńsk": 27625, "ôt": 27626, "👿": 27627, "📙": 27628, "né": 27629, "myn": 27630, " =(": 27631, "ccs": 27632, "🔮": 27633, "😕": 27634, "ooq": 27635, "dfs": 27636, "ж": 27637, "ttp": 27638, ".-\\": 27639, "rfq": 27640, "ρχ": 27641, "λλ": 27642, "kej": 27643, "🚆": 27644, "🚂": 27645, "kpa": 27646, " jf": 27647, " عم": 27648, " تف": 27649, "☼": 27650, "coe": 27651, "óst": 27652, "âng": 27653, "tss": 27654, "⤵": 27655, " lk": 27656, "'=": 27657, "🫠": 27658, "🌴": 27659, "زوج": 27660, "wek": 27661, "jom": 27662, "ْنَ": 27663, "აცი": 27664, "ოდ": 27665, "სი": 27666, " თ": 27667, "თავ": 27668, " ჭ": 27669, "ინ": 27670, "guo": 27671, "cag": 27672, "⁺": 27673, "tmp": 27674, "dsa": 27675, "۟": 27676, ",\"\\": 27677, "ִי": 27678, "thm": 27679, "sku": 27680, "nsw": 27681, "ttl": 27682, "ман": 27683, " fh": 27684, "э": 27685, "psc": 27686, "áž": 27687, "ctc": 27688, "`);": 27689, "sby": 27690, "ꭶ": 27691, "#!": 27692, " bû": 27693, "puh": 27694, "克": 27695, "埠": 27696, "″]": 27697, "*\",": 27698, " [.": 27699, "cue": 27700, "wax": 27701, "ał": 27702, "الس": 27703, "ẓ": 27704, "\u0003": 27705, "字": 27706, "_:": 27707, " kæ": 27708, " må": 27709, "^)": 27710, "]%": 27711, "-|": 27712, " اس": 27713, "ُو": 27714, " ó": 27715, "𝐸": 27716, "𝗼": 27717, "𝗺": 27718, "𝗸": 27719, "🌈": 27720, "\">\\": 27721, "quy": 27722, "ött": 27723, "❑": 27724, " ‎": 27725, "כ": 27726, " па": 27727, "лец": 27728, "عرض": 27729, "🖼": 27730, "⌛": 27731, "＋": 27732, "~)": 27733, "вы": 27734, " ба": 27735, "ри": 27736, "زم": 27737, "⚫": 27738, "ου": 27739, "🍬": 27740, "👣": 27741, "☆☆": 27742, "☐": 27743, "feu": 27744, "ア": 27745, "ミ": 27746, "-/": 27747, "άν": 27748, "+[": 27749, "عب": 27750, "doe": 27751, "čak": 27752, "wto": 27753, "ίας": 27754, " vá": 27755, "ssf": 27756, "🦀": 27757, " (>": 27758, "ῆ": 27759, "uhn": 27760, "dvr": 27761, "scc": 27762, "“”": 27763, "äm": 27764, "ynu": 27765, "tsi": 27766, "ме": 27767, "⇐": 27768, "ück": 27769, "tyn": 27770, "ärt": 27771, " č": 27772, "gye": 27773, "мен": 27774, "mph": 27775, "frm": 27776, "yth": 27777, " со": 27778, "jdk": 27779, "🍽": 27780, "omm": 27781, "toe": 27782, " qa": 27783, "leq": 27784, "طف": 27785, "~~": 27786, "]=": 27787, "ñas": 27788, "♑": 27789, ",—": 27790, "ymy": 27791, "نس": 27792, "+/-": 27793, "♒": 27794, "]][": 27795, "ισ": 27796, "ǫ": 27797, "عل": 27798, " \"_": 27799, " {-": 27800, "🤱": 27801, "#/": 27802, "),'": 27803, " وب": 27804, "قال": 27805, "ها": 27806, " تج": 27807, "سم": 27808, "رت": 27809, "وق": 27810, "ائ": 27811, "عبد": 27812, "قل": 27813, "بل": 27814, "عه": 27815, "دور": 27816, " مه": 27817, "}_{": 27818, "​)": 27819, "🤚": 27820, "▽": 27821, "quo": 27822, "👟": 27823, "💍": 27824, "🧵": 27825, "🧤": 27826, "⌚": 27827, "شف": 27828, "\",[": 27829, "$,": 27830, "už": 27831, "čno": 27832, "lič": 27833, "ară": 27834, "qy": 27835, "🚩": 27836, "<b>": 27837, "хан": 27838, " πό": 27839, "ης": 27840, "σα": 27841, "yte": 27842, "blk": 27843, "mib": 27844, " [-": 27845, "#>": 27846, "lbs": 27847, "éré": 27848, "}:": 27849, "pfa": 27850, "bmp": 27851, "🥲": 27852, "ază": 27853, "△": 27854, "udz": 27855, "לי": 27856, "_%": 27857, "uem": 27858, "áll": 27859, "═": 27860, "’?": 27861, "טר": 27862, "תי": 27863, " <<": 27864, "oqu": 27865, "ός": 27866, "dfc": 27867, "osz": 27868, ")_": 27869, "udh": 27870, "пра": 27871, "кти": 27872, "чни": 27873, ")\")": 27874, "úst": 27875, "áv": 27876, "meu": 27877, "н": 27878, "⟨": 27879, "〉": 27880, "!',": 27881, "\\[": 27882, "sj": 27883, "yds": 27884, "гу": 27885, "ɒ": 27886, "dss": 27887, "lyk": 27888, "ི": 27889, "அ": 27890, "อา": 27891, "ᚨ": 27892, "ٖ": 27893, "}}=": 27894, "}}{": 27895, "ouw": 27896, " .*": 27897, "ỉ": 27898, "gba": 27899, "qv": 27900, "∧": 27901, " qm": 27902, " $_": 27903, "dys": 27904, " jh": 27905, "ем": 27906, "hoi": 27907, "!<": 27908, "كوم": 27909, "peb": 27910, " kõ": 27911, "tbl": 27912, "ngx": 27913, "йти": 27914, "бу": 27915, "нки": 27916, "ção": 27917, "по": 27918, "ści": 27919, "оп": 27920, "lą": 27921, " 博": 27922, "俄": 27923, "师": 27924, "国际": 27925, "教育": 27926, "ан": 27927, " са": 27928, "би": 27929, "ду": 27930, " ки": 27931, "ку": 27932, "ей": 27933, "حن": 27934, "из": 27935, "يف": 27936, "он": 27937, "ív": 27938, "спе": 27939, " ло": 27940, "≤": 27941, "iqi": 27942, "ütz": 27943, "λο": 27944, "бе": 27945, "емы": 27946, "\"):": 27947, "υσ": 27948, "ód": 27949, "⇧": 27950, ")\".": 27951, ")²": 27952, "تا": 27953, "dht": 27954, " bä": 27955, "👊": 27956, "èse": 27957, "“[": 27958, ">[": 27959, "jq": 27960, "⸝": 27961, "🐖": 27962, "╭": 27963, "olé": 27964, "🏴": 27965, "]<": 27966, "……”": 27967, "ərd": 27968, "cse": 27969, "🦊": 27970, "(#": 27971, "?]": 27972, " xo": 27973, "äft": 27974, ",​": 27975, "ncr": 27976, "ー": 27977, "🎃": 27978, "🎾": 27979, "🏀": 27980, "🤰": 27981, "zcz": 27982, "🕋": 27983, "!;": 27984, "rä": 27985, "ké": 27986, "thu": 27987, " ох": 27988, " ár": 27989, " és": 27990, "jeg": 27991, "🐑": 27992, "ľ": 27993, " úč": 27994, "lož": 27995, "úč": 27996, "ció": 27997, "áj": 27998, "jük": 27999, "ма": 28000, "чна": 28001, "сно": 28002, " се": 28003, "гло": 28004, "бя": 28005, " су": 28006, "[*": 28007, "细": 28008, "分": 28009, "化": 28010, "ēt": 28011, "🍔": 28012, "🍗": 28013, "🌶": 28014, "ℝ": 28015, "👵": 28016, "=?": 28017, "κό": 28018, "mcu": 28019, " éd": 28020, ")}$": 28021, " ∞": 28022, " ¨": 28023, "paf": 28024, "dri": 28025, "_{\\": 28026, " ei": 28027, "ʋ": 28028, "ыр": 28029, " बा": 28030, " 金": 28031, "継": 28032, "ぎ": 28033, "繕": 28034, "い": 28035, "ēr": 28036, "εί": 28037, "δος": 28038, "{(": 28039, " با": 28040, "avn": 28041, " ô": 28042, "ãn": 28043, "از": 28044, "تون": 28045, " ئ": 28046, "自治": 28047, "].\"": 28048, "}+": 28049, "ƈ": 28050, "oue": 28051, "toc": 28052, "ceq": 28053, "atg": 28054, "&\\": 28055, "تی": 28056, " سی": 28057, "tho": 28058, "vai": 28059, "лу": 28060, " та": 28061, "|\"": 28062, "ков": 28063, "ск": 28064, "ева": 28065, "ρί": 28066, "↦": 28067, "šli": 28068, "šan": 28069, "👗": 28070, "ður": 28071, "💆": 28072, "ajj": 28073, "宝": 28074, "냥": 28075, "mgo": 28076, " };": 28077, "ليم": 28078, "koi": 28079, "٦": 28080, " rê": 28081, " pê": 28082, "dto": 28083, "َرَ": 28084, " χ": 28085, " πα": 28086, "ων": 28087, "ορ": 28088, "'.\"": 28089, "кра": 28090, "بە": 28091, "ێ": 28092, "ֶ": 28093, "ἰ": 28094, "κος": 28095, "νος": 28096, "ват": 28097, "cyl": 28098, "lyl": 28099, " hv": 28100, "رس": 28101, "٣": 28102, "έν": 28103, "ј": 28104, "👯": 28105, " +\\": 28106, "💌": 28107, "ό": 28108, "لك": 28109, "ιον": 28110, "ّة": 28111, "남": 28112, "δο": 28113, " رز": 28114, " ];": 28115, "=[\"": 28116, "\"];": 28117, " €.": 28118, "👃": 28119, "ăz": 28120, "村": 28121, "mdp": 28122, "ارى": 28123, "/><": 28124, "": 28125, ".\";": 28126, "osx": 28127, "]-[": 28128, "…?": 28129, "oze": 28130, "rbi": 28131, "ôr": 28132, "您": 28133, "轻松": 28134, " <%": 28135, "saw": 28136, "xit": 28137, "의": 28138, "🐉": 28139, "mkv": 28140, " رس": 28141, " أن": 28142, " مس": 28143, "éal": 28144, "🦾": 28145, "🏎": 28146, "⁷": 28147, "äst": 28148, "∈": 28149, "zze": 28150, "الع": 28151, "یت": 28152, "ემ": 28153, " აღ": 28154, " ეს": 28155, "რულ": 28156, "ლო": 28157, "ელი": 28158, "რთ": 28159, "ამ": 28160, "მი": 28161, "år": 28162, "!--": 28163, "là": 28164, "ổ": 28165, "ĩ": 28166, " kỳ": 28167, ")',": 28168, "🍿": 28169, "ڭ": 28170, "🇯": 28171, "🇿": 28172, " пе": 28173, "🚕": 28174, "cón": 28175, "フ": 28176, "ージ": 28177, "ベ": 28178, "kui": 28179, "/*": 28180, "ɨ": 28181, "idt": 28182, ",$": 28183, "yng": 28184, "לק": 28185, "ומ": 28186, "nei": 28187, " .-": 28188, ")”.": 28189, "axx": 28190, "dlg": 28191, "nrc": 28192, "מן": 28193, " למ": 28194, "\\\\": 28195, "🥜": 28196, " نف": 28197, "حة": 28198, "ذاب": 28199, "رمز": 28200, "🕯": 28201, "🪵": 28202, "❝": 28203, "❞": 28204, "(`": 28205, "aun": 28206, "ymp": 28207, "ymb": 28208, "🥪": 28209, "óz": 28210, "gfr": 28211, "‌‌": 28212, "@-": 28213, "라": 28214, "세요": 28215, " 생각": 28216, " 먹": 28217, "속": 28218, " 수": 28219, " 있어": 28220, "정": 28221, " 마": 28222, "뭘": 28223, "은": 28224, "새": 28225, " 같": 28226, "네": 28227, " 없": 28228, "신": 28229, "어": 28230, "리": 28231, "에": 28232, " 한": 28233, " 김": 28234, "와": 28235, "ët": 28236, "كمل": 28237, " ƒ": 28238, " ál": 28239, "✗": 28240, "🚙": 28241, "').": 28242, "اط": 28243, " şə": 28244, "🍇": 28245, "tlv": 28246, "fds": 28247, "⅓": 28248, "¾": 28249, "aaf": 28250, " ای": 28251, "جه": 28252, "ckt": 28253, "⋅": 28254, "-{\\": 28255, "^{\\": 28256, "rcc": 28257, "آن": 28258, " اخ": 28259, " @@": 28260, " بك": 28261, " أخ": 28262, "بار": 28263, "صة": 28264, " ول": 28265, " بخ": 28266, " وت": 28267, "نوع": 28268, " &\\": 28269, "⛄": 28270, "🌨": 28271, "😫": 28272, "🏘": 28273, "جار": 28274, "zov": 28275, "≠": 28276, ")+(": 28277, "bsa": 28278, "б": 28279, "θη": 28280, "qin": 28281, "eek": 28282, "mdb": 28283, " ș": 28284, "zé": 28285, "}},": 28286, " $+": 28287, "iee": 28288, "😯": 28289, " ←": 28290, "": 28291, "🚦": 28292, " jn": 28293, "pé": 28294, "ле": 28295, "版": 28296, "ومي": 28297, "🎫": 28298, "🏔": 28299, "🚇": 28300, "<a>": 28301, "زيز": 28302, "انب": 28303, "شك": 28304, "eug": 28305, "stä": 28306, " zb": 28307, "чий": 28308, "щий": 28309, "øre": 28310, "יר": 28311, "❥": 28312, "=:": 28313, " .)": 28314, "ynt": 28315, "🤪": 28316, "sgn": 28317, "¶": 28318, "bcb": 28319, "zuf": 28320, "؟": 28321, "木": 28322, "тся": 28323, "ит": 28324, " يت": 28325, "نون": 28326, "لاً": 28327, "結婚": 28328, "して": 28329, "建": 28330, "てる": 28331, "者に": 28332, "は": 28333, "け": 28334, "ipu": 28335, "ám": 28336, "ää": 28337, "qo": 28338, "少女": 28339, "ائِ": 28340, "الل": 28341, " ც": 28342, " ო": 28343, " ამ": 28344, "ში": 28345, " ვ": 28346, " ინ": 28347, "ტრ": 28348, "ტურ": 28349, "ლებ": 28350, "ური": 28351, "ექტ": 28352, " ის": 28353, "აში": 28354, "ესი": 28355, "აძ": 28356, "აზე": 28357, "ებს": 28358, "ვალ": 28359, "ეტ": 28360, "ობა": 28361, " ახ": 28362, "ლა": 28363, "ელს": 28364, "ჰ": 28365, " რო": 28366, "ქ": 28367, " ორ": 28368, " მა": 28369, " ნ": 28370, "ჯ": 28371, "დეს": 28372, "თან": 28373, "მის": 28374, " ას": 28375, "ეთი": 28376, "ნის": 28377, "ატ": 28378, "ტიკ": 28379, "ირ": 28380, "უხ": 28381, "ედა": 28382, " იმ": 28383, "daq": 28384, " გა": 28385, "ილი": 28386, " ლ": 28387, "\"><": 28388, "тор": 28389, "āo": 28390, "打包": 28391, "麻": 28392, "豆腐": 28393, "新疆": 28394, "味": 28395, "со": 28396, "ас": 28397, "ра": 28398, " ау": 28399, "))(": 28400, "maw": 28401, " pá": 28402, "spt": 28403, "+|": 28404, "prz": 28405, " jv": 28406, " ": 28407, "sns": 28408, "愚": 28409, "蠢": 28410, "或": 28411, "幼稚": 28412, "想": 28413, "่": 28414, "ält": 28415, "сто": 28416, "èl": 28417, "nue": 28418, "تس": 28419, "āng": 28420, "='": 28421, "ля": 28422, "moy": 28423, "зву": 28424, "wod": 28425, "náv": 28426, "ūt": 28427, "यह": 28428, " आप": 28429, "⏤": 28430, "toj": 28431, "gna": 28432, "布": 28433, "法": 28434, " ś": 28435, "iju": 28436, "👎": 28437, " يَ": 28438, "وء": 28439, "اءِ": 28440, "̶": 28441, "-:": 28442, "*}{": 28443, " *,": 28444, "лия": 28445, "pwd": 28446, "™.": 28447, " ].": 28448, "非": 28449, "正式": 28450, "َّة": 28451, "아이": 28452, "ᶜ": 28453, "ᵃ": 28454, "𝐷": 28455, "𝐿": 28456, "🆔": 28457, "⛺": 28458, " ≤": 28459, "__.": 28460, "sej": 28461, "𝗿": 28462, "𝗲": 28463, "ntz": 28464, "/:": 28465, " nä": 28466, "äd": 28467, " .,": 28468, "₸": 28469, "⌐": 28470, "；": 28471, "∀": 28472, "ゝ": 28473, "ゞ": 28474, "︵": 28475, "➩": 28476, "⇑": 28477, "✙": 28478, "ضور": 28479, "ائن": 28480, "āna": 28481, "كان": 28482, "נון": 28483, "mfc": 28484, "rps": 28485, "тре": 28486, "жь": 28487, "طع": 28488, "بع": 28489, " وا": 28490, "ذهب": 28491, "割": 28492, "下": 28493, "你的": 28494, "手指": 28495, "去": 28496, "市场": 28497, "会有": 28498, "很多人": 28499, "指挥": 28500, "指": 28501, "を切": 28502, "って": 28503, "市場": 28504, "に行": 28505, "けば": 28506, "多くの": 28507, "人が": 28508, "指示": 28509, "出す": 28510, "だろう": 28511, "gcc": 28512, "uvu": 28513, "до": 28514, "hco": 28515, "💲": 28516, "srs": 28517, "πε": 28518, "φυ": 28519, "edb": 28520, "édé": 28521, "'@": 28522, "рал": 28523, " м": 28524, "ftl": 28525, "tsz": 28526, "🐚": 28527, "ⓡ": 28528, " ☆": 28529, "◠": 28530, "📎": 28531, "λάβ": 28532, "δα": 28533, " پر": 28534, "یس": 28535, "📗": 28536, "クス": 28537, "mnu": 28538, "恆": 28539, " بي": 28540, "ίκ": 28541, "🍊": 28542, "-->": 28543, " qb": 28544, "ր": 28545, "ագ": 28546, "ہ": 28547, "$:": 28548, "₿": 28549, "🖱": 28550, "weh": 28551, "μος": 28552, "cdm": 28553, " но": 28554, "рд": 28555, "🥥": 28556, "ohi": 28557, "íd": 28558, "*)(": 28559, "®.": 28560, "🔐": 28561, "सना": 28562, "तन": 28563, " þ": 28564, " ký": 28565, "seu": 28566, "🥝": 28567, "جيل": 28568, "-<": 28569, "⬜": 28570, "ня": 28571, "им": 28572, "оло": 28573, "ча": 28574, "åll": 28575, "cmb": 28576, "𝓇": 28577, "𝓃": 28578, "𝑅": 28579, "°;": 28580, "yf": 28581, "вар": 28582, "~\\": 28583, " р": 28584, "_\"": 28585, "mym": 28586, " («": 28587, "ofe": 28588, "tch": 28589, " ?!": 28590, "♏": 28591, "♐": 28592, "ći": 28593, "τός": 28594, "ليل": 28595, "ذب": 28596, "ocz": 28597, ":{": 28598, " rq": 28599, "*/": 28600, " ».": 28601, "اج": 28602, "ِس": 28603, " آن": 28604, "على": 28605, "ليك": 28606, "يو": 28607, "صف": 28608, " ذا": 28609, " كر": 28610, " ضع": 28611, " زد": 28612, " تق": 28613, " دم": 28614, "با": 28615, "ترى": 28616, "رى": 28617, "يرا": 28618, "ره": 28619, "ومن": 28620, "لر": 28621, "ترم": 28622, "يهم": 28623, " بح": 28624, "ارة": 28625, " اح": 28626, " اث": 28627, " دع": 28628, "وال": 28629, "ياب": 28630, "نى": 28631, " ار": 28632, "كب": 28633, " نخ": 28634, " رف": 28635, " جد": 28636, "حق": 28637, "خرى": 28638, " يد": 28639, "رخ": 28640, "وما": 28641, "وام": 28642, "ارج": 28643, "عى": 28644, " مر": 28645, "خير": 28646, "عين": 28647, "طر": 28648, "سر": 28649, "انه": 28650, " به": 28651, "وله": 28652, " عل": 28653, "مه": 28654, "وات": 28655, "فيه": 28656, "}=\\": 28657, "ско": 28658, "ев": 28659, "🚛": 28660, "jum": 28661, "牌": 28662, "cej": 28663, "/*.": 28664, "=<": 28665, "🥩": 28666, "ных": 28667, "rš": 28668, "koa": 28669, "ža": 28670, "šte": 28671, "čka": 28672, "ško": 28673, "🥘": 28674, " *=": 28675, "))*": 28676, "wj": 28677, "🔈": 28678, "尔": 28679, "🍏": 28680, "oof": 28681, "χα": 28682, "ρον": 28683, "pcl": 28684, "nhl": 28685, "🍕": 28686, "$-": 28687, " /[": 28688, "'')": 28689, "št": 28690, "ța": 28691, "🔙": 28692, " 二": 28693, "áo": 28694, "垂": 28695, "柳": 28696, "🎼": 28697, " »,": 28698, "🐓": 28699, "子": 28700, "qty": 28701, "ἁ": 28702, ",__": 28703, "لن": 28704, "ۢ": 28705, "⚔": 28706, "huh": 28707, "?>": 28708, "sax": 28709, "ptu": 28710, "αλ": 28711, "νων": 28712, "ίδ": 28713, "'[": 28714, "<!": 28715, "ufs": 28716, ";&#": 28717, "$$\\": 28718, "=.": 28719, "¹.": 28720, "🌕": 28721, "{%": 28722, ")-\\": 28723, "闫": 28724, "强": 28725, " عد": 28726, "▲": 28727, "ям": 28728, "нє": 28729, "ölt": 28730, "dui": 28731, "ارد": 28732, "ورد": 28733, "ncc": 28734, "jeh": 28735, "ņš": 28736, "vā": 28737, "ēl": 28738, "ši": 28739, "īt": 28740, "nhk": 28741, "æk": 28742, "vaa": 28743, "מל": 28744, "reu": 28745, "λλα": 28746, "αλλ": 28747, "ará": 28748, "اسة": 28749, "😣": 28750, "⚪": 28751, " kä": 28752, "-]": 28753, " תק": 28754, " ה": 28755, "ור": 28756, " הח": 28757, " במ": 28758, "נע": 28759, "יל": 28760, "וו": 28761, "פו": 28762, " אר": 28763, "אר": 28764, "ס": 28765, "連続": 28766, "ド": 28767, "キュ": 28768, "メン": 28769, "タリー": 28770, "ära": 28771, "`.": 28772, " ни": 28773, "jeu": 28774, "ixa": 28775, "🏟": 28776, "fec": 28777, "פס": 28778, "\\%": 28779, " !(": 28780, "бы": 28781, " жа": 28782, "(-)": 28783, " (,": 28784, "uvi": 28785, "😲": 28786, "нь": 28787, "rds": 28788, "poa": 28789, "omh": 28790, "ө": 28791, "bsp": 28792, "ånd": 28793, "/\")": 28794, "ӓ": 28795, "یا": 28796, "𐰤": 28797, "𐱃": 28798, "⠊": 28799, "良": 28800, "伊": 28801, "լ": 28802, "ի": 28803, "אל": 28804, "ལ": 28805, "ல": 28806, "இ": 28807, "엘": 28808, "แ": 28809, "อล": 28810, "ไอ": 28811, "ᛁ": 28812, "rfc": 28813, " ì": 28814, "vq": 28815, "ɲ": 28816, "ňa": 28817, "»),": 28818, "∨": 28819, "mä": 28820, ">&": 28821, "œur": 28822, "🍴": 28823, " во": 28824, "hej": 28825, "🐪": 28826, "گ": 28827, "···": 28828, "👰": 28829, "óż": 28830, "ны": 28831, "туа": 28832, " 超": 28833, "код": 28834, "ść": 28835, "hia": 28836, "৳": 28837, " με": 28838, " έ": 28839, "ję": 28840, "یک": 28841, "লেট": 28842, "ój": 28843, "scn": 28844, "dzi": 28845, "ób": 28846, "ką": 28847, " го": 28848, "ру": 28849, " ли": 28850, "цен": 28851, "роб": 28852, " об": 28853, "كيف": 28854, " مش": 28855, " لل": 28856, "اند": 28857, " এর": 28858, "بيق": 28859, " مك": 28860, "أة": 28861, "ích": 28862, "ап": 28863, "сти": 28864, "رق": 28865, "ᐊ": 28866, " بت": 28867, " то": 28868, "рт": 28869, "ших": 28870, "ак": 28871, "пы": 28872, "ząd": 28873, " ра": 28874, "гин": 28875, " zd": 28876, "niu": 28877, ";&": 28878, "ჭ": 28879, "希望": 28880, "らの": 28881, "μου": 28882, "μού": 28883, "ijs": 28884, "ﷺ": 28885, "زا": 28886, "λό": 28887, "φος": 28888, "！": 28889, "ρός": 28890, "omx": 28891, "شر": 28892, "مش": 28893, " وج": 28894, "]@": 28895, ".'.": 28896, "ālā": 28897, "وزی": 28898, "द": 28899, "🕷": 28900, "ბ": 28901, "omt": 28902, "́c": 28903, "dmf": 28904, "": 28905, "نع": 28906, "æt": 28907, "⬅": 28908, " vé": 28909, ").)": 28910, "hma": 28911, "🏿": 28912, " ш": 28913, "𐰲": 28914, " yh": 28915, "شاد": 28916, "ک": 28917, " .=": 28918, "шен": 28919, "🛰": 28920, "👮": 28921, "ldr": 28922, "uos": 28923, "trn": 28924, "#\"": 28925, "ərə": 28926, "تهم": 28927, " يف": 28928, "😰": 28929, "🤸": 28930, "☞": 28931, " 방": 28932, " (−": 28933, "acg": 28934, "ća": 28935, "rct": 28936, "cnf": 28937, "🥟": 28938, "🥧": 28939, ";": 28940, "iid": 28941, ">;": 28942, "ôle": 28943, "dbp": 28944, " 都市": 28945, "風景": 28946, " tj": 28947, "twe": 28948, " vh": 28949, "ibc": 28950, "bps": 28951, "λα": 28952, "ﻨ": 28953, "ﻭ": 28954, "ﻫ": 28955, "ﻤ": 28956, "◐": 28957, "₩": 28958, " 〢": 28959, "⊟": 28960, ":_": 28961, "\\_": 28962, "凸": 28963, "⌓": 28964, " へ": 28965, "ㄏ": 28966, "ᕙ": 28967, "༼": 28968, "༽": 28969, "ᕗ": 28970, "☢": 28971, "⅙": 28972, "✶": 28973, "✠": 28974, "≧": 28975, "ĺ": 28976, "＞": 28977, "⊙": 28978, "〃": 28979, "┏": 28980, "┛": 28981, "ᗜ": 28982, "̳": 28983, "╫": 28984, "▦": 28985, "➨": 28986, "〓": 28987, "shy": 28988, "🏐": 28989, "🤷": 28990, "\u0002\u0002": 28991, "pim": 28992, "دم": 28993, "öhn": 28994, " ^^": 28995, "ată": 28996, "モ": 28997, "テ": 28998, "可": 28999, "ћ": 29000, "че": 29001, " ;;": 29002, "🔪": 29003, "🍖": 29004, "uwe": 29005, "📹": 29006, "!';": 29007, "afc": 29008, "🏍": 29009, "pth": 29010, "](/": 29011, ".\\\"": 29012, "hok": 29013, "bij": 29014, "ské": 29015, "mán": 29016, "‪": 29017, "спи": 29018, "['": 29019, "xw": 29020, " jó": 29021, "doo": 29022, "🥖": 29023, "()-": 29024, "hko": 29025, "nyk": 29026, "🖍": 29027, "📷": 29028, "vx": 29029, " \"$": 29030, " ét": 29031, "пре": 29032, "ръ": 29033, "чва": 29034, "дак": 29035, "🖋": 29036, "toh": 29037, "|,": 29038, "gte": 29039, "ïde": 29040, "َّة": 29041, " اب": 29042, "βα": 29043, "tae": 29044, "tke": 29045, ")(=": 29046, "ры": 29047, "🎹": 29048, "🤟": 29049, "⛷": 29050, "💀": 29051, "го": 29052, "ħ": 29053, "⁄": 29054, "\"(\"": 29055, ";:": 29056, "ĭ": 29057, "義": 29058, "怪": 29059, "恐怖": 29060, " 神": 29061, "秘": 29062, "ái": 29063, "psk": 29064, "λευ": 29065, " sø": 29066, "nja": 29067, "烏": 29068, "iau": 29069, " εἰ": 29070, "ρων": 29071, "♫": 29072, "♖": 29073, "✕": 29074, "〠": 29075, " 웃": 29076, "♗": 29077, "⁵": 29078, "(´": 29079, "◔": 29080, "／": 29081, "ѵ": 29082, "ｪ": 29083, "╬": 29084, "╦": 29085, "مد": 29086, "سك": 29087, "غام": 29088, "سه": 29089, "cé": 29090, "ekw": 29091, "tts": 29092, " \"~": 29093, "فل": 29094, "פל": 29095, "שת": 29096, "ים": 29097, "srp": 29098, "◄": 29099, "áin": 29100, " \\(": 29101, "": 29102, "тан": 29103, "😺": 29104, "🛵": 29105, "=[": 29106, "ozz": 29107, "繁": 29108, "ioc": 29109, "dbc": 29110, "ń": 29111, "āra": 29112, "🥑": 29113, "🥤": 29114, "ër": 29115, "天": 29116, "😹": 29117, "үү": 29118, "дин": 29119, "ზე": 29120, "فاق": 29121, "աք": 29122, "ksh": 29123, "👫": 29124, "ܪ": 29125, "crl": 29126, "‏": 29127, "有限": 29128, "会社": 29129, "シー": 29130, "リス": 29131, "swf": 29132, "auw": 29133, "📓": 29134, " sí": 29135, "شه": 29136, "باز": 29137, "📃": 29138, "🦉": 29139, "🚘": 29140, "کو": 29141, "ⴀ": 29142, "wau": 29143, "udn": 29144, "prf": 29145, "köz": 29146, "ži": 29147, "🧴": 29148, "*%": 29149, "نگ": 29150, "ىلى": 29151, "اپ": 29152, " 伊": 29153, "犁": 29154, "哈": 29155, "州": 29156, "地区": 29157, " 新": 29158, "疆": 29159, "兵": 29160, "👼": 29161, "!!)": 29162, "íl": 29163, "só": 29164, "édi": 29165, "ías": 29166, "={": 29167, "ƒ": 29168, "لاح": 29169, ">=": 29170, "=$": 29171, "🌰": 29172, "ضرب": 29173, "äh": 29174, "נו": 29175, ".',": 29176, " ﬁ": 29177, "ſh": 29178, ")](": 29179, "忍": 29180, "び": 29181, " хо": 29182, "те": 29183, " бы": 29184, "rui": 29185, " §§": 29186, "ού": 29187, "cri": 29188, " пу": 29189, "бар": 29190, " вз": 29191, "бро": 29192, "ран": 29193, "gtg": 29194, "ськ": 29195, "অ": 29196, "সম": 29197, "ী": 29198, "য়া": 29199, "yka": 29200, "пля": 29201, "ску": 29202, " йо": 29203, "ło": 29204, " pł": 29205, " ć": 29206, "zić": 29207, "💇": 29208, "沐": 29209, "云": 29210, "烟": 29211, "罚": 29212, "gbp": 29213, "bfc": 29214, "ohu": 29215, "ceu": 29216, "cée": 29217, "(\"{": 29218, " =\"": 29219, "hse": 29220, " ؛": 29221, "٨": 29222, "rée": 29223, "": 29224, "{'": 29225, "nên": 29226, "جمع": 29227, "وك": 29228, " クリ": 29229, "スタル": 29230, " =$": 29231, ">$": 29232, "ря": 29233, " ¡": 29234, "ló": 29235, "اره": 29236, "gua": 29237, "<.": 29238, "פ": 29239, "φε": 29240, "éo": 29241, "ας": 29242, "ιο": 29243, "βε": 29244, "τος": 29245, " κε": 29246, " ου": 29247, "ρο": 29248, " γε": 29249, "γα": 29250, "ρι": 29251, "με": 29252, "ταν": 29253, "ευ": 29254, " сх": 29255, "ροι": 29256, "от": 29257, "вет": 29258, " й": 29259, "🥎": 29260, "🧼": 29261, " т": 29262, "({{": 29263, "رح": 29264, "ραγ": 29265, "تر": 29266, "جم": 29267, "كة": 29268, "ól": 29269, "φό": 29270, "φέ": 29271, "جب": 29272, "غر": 29273, "افة": 29274, "̣n": 29275, "̣t": 29276, "빠": 29277, "른": 29278, " 채팅": 29279, "으로": 29280, " 친구": 29281, " 사": 29282, "귀": 29283, " 만": 29284, " ε": 29285, "γκ": 29286, " ἔ": 29287, " ἐν": 29288, "γεν": 29289, "ής": 29290, "εύ": 29291, "∴": 29292, "mdg": 29293, ")=>": 29294, " ñ": 29295, " ./": 29296, "千": 29297, "早": 29298, "赤": 29299, "阪": 29300, "ﬃ": 29301, "ﬀ": 29302, ">-": 29303, "qal": 29304, " قي": 29305, "全": 29306, "能": 29307, "免费": 29308, " 照片": 29309, "编辑器": 29310, "创作": 29311, "专业": 29312, "照片": 29313, " sì": 29314, "백": 29315, "부": 29316, "hrm": 29317, " ,[": 29318, "cmp": 29319, "قيق": 29320, "اض": 29321, "عة": 29322, " مق": 29323, " عن": 29324, " ɔ": 29325, "∪": 29326, "ℂ": 29327, "\"+": 29328, "ცი": 29329, "ცხ": 29330, " მშ": 29331, " ან": 29332, "სახ": 29333, " ძ": 29334, " ყ": 29335, "ედ": 29336, "茶": 29337, "湯": 29338, " 茶": 29339, "道": 29340, "ộc": 29341, " số": 29342, " là": 29343, "bài": 29344, " lý": 29345, " về": 29346, "ỉnh": 29347, "ày": 29348, " cò": 29349, "ơ": 29350, "ở": 29351, "ể": 29352, "浦": 29353, "西": 29354, "ǔ": 29355, "上": 29356, "平": 29357, "gpi": 29358, "pio": 29359, "ále": 29360, "ček": 29361, "🇫": 29362, "🇭": 29363, "🇼": 29364, "кое": 29365, "🚲": 29366, "ñón": 29367, " ドラ": 29368, "ゴン": 29369, "ボール": 29370, "復活": 29371, "ュ": 29372, "ョン": 29373, "悟空": 29374, "と": 29375, "ジ": 29376, "ータ": 29377, "dps": 29378, "": 29379, "wot": 29380, "لاة": 29381, "ő": 29382, "duz": 29383, "rao": 29384, "בו": 29385, "צת": 29386, " הה": 29387, "פר": 29388, "דה": 29389, "דר": 29390, "טח": 29391, "ajn": 29392, "cdr": 29393, "öss": 29394, "зон": 29395, "aná": 29396, " מכ": 29397, " וי": 29398, "דע": 29399, " %\\": 29400, "]#": 29401, "eud": 29402, "აფ": 29403, "壬": 29404, "生": 29405, "%+": 29406, "約束": 29407, "ネ": 29408, "バー": 29409, "ランド": 29410, "tsp": 29411, "🦟": 29412, "🚧": 29413, "🔨": 29414, "🧖": 29415, "🧱": 29416, "🔇": 29417, "🌪": 29418, "نف": 29419, " يا": 29420, "][\"": 29421, "‌,": 29422, " مض": 29423, "يق": 29424, "pkg": 29425, ">`": 29426, "jst": 29427, " [+": 29428, "tgz": 29429, "🍾": 29430, "🌅": 29431, " чу": 29432, "лым": 29433, "тар": 29434, "кол": 29435, "хо": 29436, "śni": 29437, "gms": 29438, "따": 29439, " 오": 29440, "거": 29441, " 좋은": 29442, "인데요": 29443, "못": 29444, "어요": 29445, "게": 29446, " 사실": 29447, "이에요": 29448, "약": 29449, " 좀": 29450, " 지": 29451, "켜": 29452, "혼": 29453, "자": 29454, " 할": 29455, "걱": 29456, "믿": 29457, "좋": 29458, "냄": 29459, "말": 29460, " 꿈": 29461, "마": 29462, "음": 29463, "대로": 29464, " 해": 29465, " 말이": 29466, " 맞": 29467, "다": 29468, " 도와": 29469, " 드릴": 29470, "까요": 29471, "뭐": 29472, "든지": 29473, "꿈": 29474, " 깨": 29475, "럴": 29476, " 리": 29477, "는데": 29478, "발": 29479, " 채": 29480, "로": 29481, " 자": 29482, "고": 29483, "억": 29484, "나": 29485, " 믿": 29486, "분": 29487, " 좋다": 29488, "럼": 29489, " 올": 29490, " 것": 29491, "농": 29492, "담": 29493, " 아니": 29494, "야": 29495, "걸": 29496, "느": 29497, "니": 29498, " 차": 29499, "굶": 29500, "겠다": 29501, "잘": 29502, " 모르": 29503, "겠": 29504, "는데요": 29505, "솔": 29506, "직": 29507, "히": 29508, "해": 29509, "맛": 29510, "밥": 29511, "운": 29512, "어서": 29513, " 귀": 29514, " 걸": 29515, "렸": 29516, " 뭘": 29517, "넹": 29518, "당": 29519, " 처음": 29520, " 이해": 29521, " 입력": 29522, " 물론": 29523, " 언": 29524, " 내가": 29525, "꽉": 29526, " 빨리": 29527, "현": 29528, "중": 29529, "범": 29530, " 라": 29531, " 호": 29532, " 같이": 29533, " 아": 29534, "는": 29535, " 사랑": 29536, "하는": 29537, " 잠깐": 29538, " 입": 29539, " 사이": 29540, "트": 29541, " 탐": 29542, "색": 29543, " 저": 29544, "를": 29545, " 조": 29546, "심": 29547, " 동": 29548, "굴": 29549, "뢰": 29550, "에게": 29551, " 배": 29552, "울": 29553, "ſſ": 29554, "uré": 29555, "bda": 29556, "\\*": 29557, "🥛": 29558, "bbr": 29559, "{\"": 29560, "}'.": 29561, "ctx": 29562, "🚮": 29563, "∼": 29564, " شب": 29565, " שב": 29566, "🌧": 29567, "💦": 29568, "🥵": 29569, "heu": 29570, "oš": 29571, "بول": 29572, "لی": 29573, "ترك": 29574, "lié": 29575, " mà": 29576, "².": 29577, "ől": 29578, "oua": 29579, "jha": 29580, "واء": 29581, "ερ": 29582, " '\"": 29583, " ν": 29584, "😠": 29585, "+(-": 29586, "aos": 29587, "зик": 29588, " μά": 29589, "四": 29590, "元": 29591, "玉": 29592, "鑒": 29593, "ŭ": 29594, "ữ": 29595, "ôm": 29596, "mux": 29597, "wyd": 29598, "חו": 29599, "פות": 29600, " ツ": 29601, "]].": 29602, "пе": 29603, "nés": 29604, "🧸": 29605, "ók": 29606, "eku": 29607, "vdd": 29608, "hpo": 29609, "🐻": 29610, "🐨": 29611, "🐯": 29612, "💄": 29613, "👄": 29614, " ¬": 29615, "эро": 29616, "=+": 29617, "(;": 29618, "ἐ": 29619, "ικο": 29620, "ῦ": 29621, "劇場": 29622, "物語": 29623, "🙉": 29624, "🙊": 29625, "ṛ": 29626, "ḷ": 29627, "oxa": 29628, "‬‬": 29629, "פי": 29630, "מא": 29631, "טי": 29632, "⤴": 29633, "😝": 29634, "😚": 29635, " یا": 29636, "ジョ": 29637, "楠": 29638, "ミラー": 29639, "\\,": 29640, " _{": 29641, "wab": 29642, "ţa": 29643, "rpc": 29644, "aih": 29645, "ří": 29646, "ště": 29647, "šu": 29648, "ješ": 29649, "τρο": 29650, "ª": 29651, "íf": 29652, "zá": 29653, " ně": 29654, "少年": 29655, " 百": 29656, "合": 29657, " ポ": 29658, "ケ": 29659, "モン": 29660, "без": 29661, "გი": 29662, "ღ": 29663, " სტ": 29664, "ომ": 29665, "ენტ": 29666, "ლე": 29667, "წ": 29668, "ადა": 29669, "キング": 29670, "ダム": 29671, " vl": 29672, "egn": 29673, "}}.": 29674, " 中国": 29675, "大陆": 29676, ")||": 29677, "mvc": 29678, "زيد": 29679, "🦴": 29680, "änn": 29681, "род": 29682, " из": 29683, "scf": 29684, "śl": 29685, "вез": 29686, "頭": 29687, "腦": 29688, "簡單": 29689, "行動": 29690, "態度": 29691, "當然": 29692, "头": 29693, "脑": 29694, "简单的": 29695, "行动": 29696, "态度": 29697, "当然": 29698, "úp": 29699, "โ": 29700, "ất": 29701, "ớ": 29702, "ẩn": 29703, "душ": 29704, "ний": 29705, " ше": 29706, "ویه": 29707, "وی": 29708, "مص": 29709, "ابر": 29710, "اوی": 29711, ",’”": 29712, " dq": 29713, " '+": 29714, "zny": 29715, "cln": 29716, "ет": 29717, " х": 29718, " yp": 29719, "ат": 29720, "юра": 29721, "glb": 29722, " ①": 29723, " ②": 29724, " ③": 29725, " ${": 29726, "<=": 29727, "]$": 29728, "ꭰ": 29729, "ꮝ": 29730, "ꮿ": 29731, "ꭹ": 29732, "ꭸ": 29733, "ᏹ": 29734, "ꭳ": 29735, "ꮃ": 29736, "ꮀ": 29737, "ავი": 29738, " 직": 29739, "업": 29740, "dma": 29741, "鲁": 29742, "林": 29743, "拉": 29744, "盛": 29745, "紐": 29746, "約": 29747, "朝鲜": 29748, "族": 29749, "조": 29750, "선": 29751, "족": 29752, " ★★": 29753, " ő": 29754, "ű": 29755, "coa": 29756, "#-": 29757, "*;": 29758, "🕣": 29759, "éa": 29760, "إن": 29761, " يأ": 29762, "سو": 29763, "شاء": 29764, " 】": 29765, "ローマ": 29766, " ſh": 29767, "ſs": 29768, "ſt": 29769, "✂": 29770, "вал": 29771, "qcd": 29772, "qos": 29773, "ოკ": 29774, "說": 29775, "说法": 29776, "\b": 29777, "ohc": 29778, ",»": 29779, "ffd": 29780, "삼성": 29781, "닷": 29782, "컴": 29783, "𝗮": 29784, "𝗻": 29785, "𝘁": 29786, "𝗱": 29787, "jà": 29788, "wq": 29789, "kec": 29790, "oop": 29791, "snp": 29792, "مار": 29793, " !,": 29794, "⏩": 29795, "⏲": 29796, "🛑": 29797, "🔖": 29798, "⛔": 29799, "äng": 29800, "dnn": 29801, "🕌": 29802, " ț": 29803, "ofd": 29804, "وجد": 29805, "ضر": 29806, "حض": 29807, "بود": 29808, "ян": 29809, "вчи": 29810, "🐥": 29811, " 頭": 29812, "文字": 29813, "ё": 29814, "дор": 29815, "си": 29816, " ку": 29817, "зне": 29818, "цо": 29819, "وز": 29820, "🔝": 29821, "💾": 29822, "⭕": 29823, "河": 29824, "野": 29825, "太郎": 29826, " /,": 29827, " ><": 29828, "khe": 29829, "ãos": 29830, "jiv": 29831, " ,'": 29832, "ieh": 29833, "-​": 29834, "📁": 29835, "év": 29836, "ъем": 29837, "лив": 29838, " те": 29839, "зі": 29840, "ҳ": 29841, "چه": 29842, "=&": 29843, "jsk": 29844, "➊": 29845, "➋": 29846, "➌": 29847, "θρω": 29848, "?’”": 29849, "♢": 29850, "爪": 29851, "𝕌": 29852, "𝔯": 29853, "ㄥ": 29854, "ʳ": 29855, "𝓪": 29856, "ⓜ": 29857, "ย": 29858, "𝓭": 29859, "𝓵": 29860, "乇": 29861, "𝓻": 29862, "ⓐ": 29863, "🐳": 29864, "𝔪": 29865, "ᵘ": 29866, "𝒆": 29867, "尺": 29868, "𝔞": 29869, "╰": 29870, "ｍ": 29871, "𝐮": 29872, "ᵈ": 29873, "𝔸": 29874, "ｒ": 29875, "ļ": 29876, "𝐓": 29877, "sht": 29878, "zhu": 29879, "}$$": 29880, "%%\\": 29881, " ма": 29882, "дов": 29883, "社会": 29884, "信用": 29885, "体系": 29886, " (\\": 29887, " 安": 29888, "倍": 29889, " مع": 29890, "وتي": 29891, "δρο": 29892, "λύ": 29893, "qh": 29894, "}</": 29895, "فس": 29896, "īs": 29897, "يس": 29898, "trä": 29899, "?\")": 29900, "奥": 29901, "尻": 29902, "ած": 29903, "ρία": 29904, "ölf": 29905, "stp": 29906, "ινε": 29907, "sbi": 29908, "تف": 29909, "lni": 29910, "hrt": 29911, "[*]": 29912, "()\\": 29913, "пад": 29914, "@{": 29915, " '{": 29916, "!='": 29917, "=='": 29918, "'].": 29919, "peu": 29920, "τω": 29921, "mbc": 29922, "boi": 29923, "шу": 29924, "лка": 29925, "мол": 29926, "тих": 29927, "ἧ": 29928, "ἡ": 29929, "ði": 29930, "💣": 29931, "جن": 29932, "}}:": 29933, "\"}}": 29934, "}\",": 29935, "rti": 29936, "ttk": 29937, "вел": 29938, "вич": 29939, " чи": 29940, "стя": 29941, "па": 29942, "три": 29943, "ген": 29944, "кая": 29945, "ья": 29946, " ви": 29947, "рки": 29948, "цу": 29949, "𝒜": 29950, "𝓂": 29951, "𝒸": 29952, "𝓉": 29953, "𝒾": 29954, "彡": 29955, "𝐼": 29956, "𝒮": 29957, "𝑀": 29958, " kq": 29959, "⟶": 29960, "｜": 29961, "\",'": 29962, "кой": 29963, "isr": 29964, "''(": 29965, "></": 29966, "stv": 29967, ")--": 29968, "魔法": 29969, "育成": 29970, "計画": 29971, "íč": 29972, "],\\": 29973, "bym": 29974, "جا": 29975, "yup": 29976, "◼": 29977, "ρή": 29978, "罢": 29979, ":\":": 29980, "|.": 29981, " [%": 29982, "αι": 29983, "εσ": 29984, "ócz": 29985, " \"<": 29986, "ستر": 29987, "بط": 29988, "انة": 29989, "חר": 29990, "ַ": 29991, "גד": 29992, "داء": 29993, "دا": 29994, "راء": 29995, "أس": 29996, " 七": 29997, "つの": 29998, "大": 29999, "罪": 30000, "怨": 30001, "嗟": 30002, "のエ": 30003, "ジン": 30004, "バラ": 30005, " 後": 30006, "編": 30007, "dí": 30008, "lua": 30009, "?!\"": 30010, "⋮": 30011, "(~": 30012, "wys": 30013, "✭": 30014, "⛵": 30015, " جو": 30016, "حاد": 30017, "واد": 30018, "يتر": 30019, "قار": 30020, "قا": 30021, "cfe": 30022, "ље": 30023, "сна": 30024, "сан": 30025, "љ": 30026, "raž": 30027, "zei": 30028, "紙": 30029, "遊戲": 30030, "纸": 30031, "游戏": 30032, "ไ": 30033, "พ": 30034, "ơi": 30035, "кар": 30036, ")</": 30037, "🥚": 30038, "ров": 30039, "λή": 30040, "ρης": 30041, "--)": 30042, ");}": 30043, "لب": 30044, "ني": 30045, "زر": 30046, "德": 30047, "尼": 30048, "泽": 30049, "ѓ": 30050, " ха": 30051, "џ": 30052, "😷": 30053, "📵": 30054, "🌦": 30055, "📡": 30056, "東": 30057, "秩": 30058, "父": 30059, "sá": 30060, "😙": 30061, "ebd": 30062, "bcl": 30063, "لت": 30064, "ائد": 30065, "riu": 30066, "tpl": 30067, "liq": 30068, "한": 30069, "글": 30070, "’),": 30071, "loa": 30072, "oč": 30073, "🩹": 30074, "yns": 30075, " 対": 30076, "ヶ": 30077, "条": 30078, "要求": 30079, "十": 30080, "一条": 30081, "十一": 30082, "條": 30083, ")-(": 30084, "])[": 30085, " σο": 30086, "⚓": 30087, "]&": 30088, "ím": 30089, " sè": 30090, " бу": 30091, "#'": 30092, " ά": 30093, "πον": 30094, "γω": 30095, "γή": 30096, "磯": 30097, "区": 30098, "ряд": 30099, " +\"": 30100, "⚤": 30101, "rtt": 30102, "bé": 30103, "⌀": 30104, " pw": 30105, "アンド": 30106, "リュー": 30107, "ヒ": 30108, "ューズ": 30109, "bdb": 30110, " (;": 30111, "τυ": 30112, "πη": 30113, "كا": 30114, "δει": 30115, " ἐ": 30116, "στι": 30117, "ῆς": 30118, " ἡ": 30119, "ὀ": 30120, "λυ": 30121, "μπ": 30122, "ει": 30123, "ἷ": 30124, " ({": 30125, "}).": 30126, "'*": 30127, " )[": 30128, "лья": 30129, "дар": 30130, "чук": 30131, "»)": 30132, "🛀": 30133, "𝘧": 30134, "𝑤": 30135, "𝘣": 30136, "𝑒": 30137, "𝑙": 30138, "𝑐": 30139, "𝘰": 30140, "𝑚": 30141, "cof": 30142, "夫": 30143, "欣": 30144, "蹴": 30145, "鞠": 30146, " zs": 30147, "pug": 30148, "epc": 30149, "hoa": 30150, "méd": 30151, ".³": 30152, "🦅": 30153, "ци": 30154, "оз": 30155, "лой": 30156, "}\"": 30157, "}>": 30158, "※": 30159, "🦁": 30160, "وين": 30161, "خة": 30162, "يتي": 30163, "跨境": 30164, "兴": 30165, "运": 30166, " dí": 30167, "hdc": 30168, ",),": 30169, "eig": 30170, " má": 30171, " ':": 30172, "✧": 30173, "età": 30174, "мар": 30175, "た": 30176, "こ": 30177, "焼き": 30178, "蛸": 30179, "焼": 30180, ";;)": 30181, " ก": 30182, "ะ": 30183, "เห": 30184, "ร": 30185, " \"+": 30186, "{#": 30187, "#}": 30188, "ь": 30189, "рай": 30190, "ība": 30191, "āj": 30192, "īgi": 30193, "🧬": 30194, "ggi": 30195, "ния": 30196, " τὸ": 30197, "πει": 30198, " ды": 30199, "гла": 30200, "?$": 30201, " sā": 30202, " τε": 30203, "νη": 30204, "nsy": 30205, " \"#": 30206, "🐝": 30207, "btn": 30208, "一": 30209, "ijt": 30210, "ysm": 30211, "бка": 30212, "дка": 30213, "сел": 30214, "\"/\"": 30215, "צה": 30216, "ל": 30217, "ף": 30218, " ש": 30219, "בע": 30220, " תי": 30221, "טו": 30222, "סי": 30223, " קר": 30224, " ח": 30225, " הא": 30226, " ק": 30227, "צר": 30228, " בה": 30229, "נה": 30230, " מו": 30231, "די": 30232, "עי": 30233, "נית": 30234, " אמ": 30235, " תש": 30236, " הת": 30237, " שה": 30238, " מת": 30239, "ם": 30240, " בו": 30241, " הנ": 30242, "שי": 30243, "אות": 30244, " תח": 30245, "נות": 30246, " הכ": 30247, "וח": 30248, " אס": 30249, " וה": 30250, " וא": 30251, "תר": 30252, " אח": 30253, "神戸": 30254, "ビー": 30255, " ō": 30256, " wn": 30257, " ——": 30258, "💘": 30259, "ryt": 30260, "'{": 30261, "$`": 30262, "🐟": 30263, "🦈": 30264, "🐠": 30265, "♂": 30266, "وید": 30267, "یو": 30268, " اد": 30269, " تد": 30270, "وین": 30271, "دون": 30272, "ɥ": 30273, "zea": 30274, "grp": 30275, "え": 30276, "り": 30277, "も": 30278, "مي": 30279, " نح": 30280, "سب": 30281, "στε": 30282, "φων": 30283, "": 30284, "👳": 30285, "🫣": 30286, "yea": 30287, "κου": 30288, "άσ": 30289, " לג": 30290, "רום": 30291, "ρω": 30292, "カ": 30293, "ター": 30294, "レ": 30295, "富": 30296, "山": 30297, "xls": 30298, "hpp": 30299, "وري": 30300, " ме": 30301, "кси": 30302, "вое": 30303, "рко": 30304, " ве": 30305, "жли": 30306, " мы": 30307, "👖": 30308, "cfm": 30309, "🤠": 30310, "ʝ": 30311, "xam": 30312, "شاه": 30313, " nā": 30314, "🎩": 30315, "dtd": 30316, " タイ": 30317, "ур": 30318, "рг": 30319, " 〜": 30320, "〜": 30321, "👜": 30322, " ź": 30323, " ķ": 30324, "liw": 30325, "ˡ": 30326, "),”": 30327, "ارق": 30328, " زي": 30329, "nnc": 30330, "ēm": 30331, "აღ": 30332, "kcl": 30333, "𐰖": 30334, "ヤ": 30335, "アラ": 30336, "ナ": 30337, "雅": 30338, "特": 30339, "南": 30340, "अय": 30341, "अल": 30342, "त": 30343, "इन": 30344, "յ": 30345, "տ": 30346, "ն": 30347, "ན": 30348, "ཏ": 30349, "ཡ": 30350, "ალ": 30351, "ய": 30352, "ட": 30353, "ந": 30354, "티": 30355, "엔": 30356, "ว": 30357, "าย": 30358, "ที": 30359, "เอ": 30360, "็น": 30361, "يب": 30362, "死": 30363, " ‏": 30364, "iit": 30365, "}=-": 30366, " 味": 30367, "素": 30368, " بل": 30369, "دة": 30370, " jg": 30371, "?\";": 30372, "uvw": 30373, "ḵ": 30374, " iż": 30375, "ゲーム": 30376, "ウ": 30377, "オ": 30378, "ッチ": 30379, "ņ": 30380, "≌": 30381, "☁": 30382, "jte": 30383, "oré": 30384, "=/": 30385, "llb": 30386, "»:": 30387, "mlx": 30388, " э": 30389, "сс": 30390, "дя": 30391, "ной": 30392, " ги": 30393, "=(\\": 30394, "šić": 30395, "🐵": 30396, "🐒": 30397, "🦍": 30398, "🐩": 30399, "😍😍": 30400, "ône": 30401, "jir": 30402, "\";}": 30403, "🌩": 30404, "úr": 30405, "%/": 30406, "ató": 30407, "πος": 30408, "ὄ": 30409, " są": 30410, "рис": 30411, "ша": 30412, "об": 30413, "чее": 30414, " ак": 30415, "享": 30416, "淘": 30417, "网": 30418, "вку": 30419, " сы": 30420, "гра": 30421, "cze": 30422, "пыт": 30423, "чие": 30424, "ρου": 30425, "τά": 30426, "κι": 30427, "ως": 30428, "луч": 30429, "ды": 30430, "ąż": 30431, " ín": 30432, "ляр": 30433, " pó": 30434, "ην": 30435, "طل": 30436, " پو": 30437, "ęć": 30438, "łą": 30439, "ają": 30440, "waj": 30441, "ôts": 30442, "isé": 30443, "бер": 30444, "rá": 30445, "zą": 30446, "кер": 30447, "cyj": 30448, " че": 30449, "ņem": 30450, "ać": 30451, "łem": 30452, "acé": 30453, "ил": 30454, "виа": 30455, "zej": 30456, "wne": 30457, "waż": 30458, "zł": 30459, "спо": 30460, "рта": 30461, "ене": 30462, "под": 30463, "сии": 30464, "гре": 30465, "ولة": 30466, "فاع": 30467, "لية": 30468, "нед": 30469, "ást": 30470, "čné": 30471, "ěz": 30472, "에서": 30473, " 베": 30474, "팅": 30475, "пин": 30476, "ومو": 30477, "يجي": 30478, "ساب": 30479, "нг": 30480, "сте": 30481, "при": 30482, "ют": 30483, "рые": 30484, " بط": 30485, " مو": 30486, "бек": 30487, "قم": 30488, " وك": 30489, " تح": 30490, "سين": 30491, "ربة": 30492, "áč": 30493, " ক": 30494, "িন": 30495, "ো": 30496, " রে": 30497, "টিং": 30498, " গে": 30499, "মি": 30500, "ং": 30501, " গ": 30502, "াইড": 30503, "лов": 30504, "вка": 30505, "тие": 30506, "той": 30507, "ное": 30508, "원": 30509, "엑": 30510, "스": 30511, "벳": 30512, " 도": 30513, "메": 30514, "인": 30515, " 주": 30516, "소": 30517, " 우": 30518, "회": 30519, "접": 30520, " 가": 30521, "방법": 30522, " 안내": 30523, " 토": 30524, "크": 30525, "док": 30526, "امل": 30527, "щая": 30528, " ú": 30529, "ху": 30530, "żs": 30531, "íz": 30532, "ási": 30533, "ше": 30534, "лич": 30535, "ять": 30536, " 응": 30537, "용": 30538, " 을": 30539, " 다운": 30540, "로드": 30541, "드로": 30542, "이드": 30543, " цу": 30544, "пис": 30545, "勤": 30546, "め": 30547, "人の": 30548, "生存": 30549, "戦略": 30550, "خول": 30551, "ζί": 30552, "ιχ": 30553, " σε": 30554, "ναν": 30555, " ι": 30556, "στό": 30557, "πο": 30558, " ай": 30559, "фон": 30560, "ят": 30561, "все": 30562, "гда": 30563, "сов": 30564, "зо": 30565, "пас": 30566, "ент": 30567, " 上海": 30568, "隆": 30569, "匠": 30570, "网络": 30571, "não": 30572, "ęd": 30573, "żej": 30574, "🚐": 30575, " ზ": 30576, "ინა": 30577, "坊": 30578, "僕": 30579, "が": 30580, "未来": 30581, "動": 30582, "かす": 30583, "📫": 30584, "³.": 30585, " در": 30586, " wj": 30587, "ком": 30588, "ppu": 30589, "τικ": 30590, "خت": 30591, "لط": 30592, "ضي": 30593, "وع": 30594, "نب": 30595, "ياء": 30596, "يار": 30597, " هو": 30598, " وأ": 30599, " وس": 30600, " لي": 30601, " أم": 30602, "تي": 30603, "واه": 30604, "زي": 30605, "ــ": 30606, " qp": 30607, "(--": 30608, "사": 30609, "생활": 30610, "íb": 30611, "omé": 30612, "בית": 30613, " על": 30614, "מין": 30615, "بال": 30616, "āli": 30617, "🧂": 30618, "жан": 30619, "циа": 30620, " ・": 30621, "ハ": 30622, "ロー": 30623, "サン": 30624, "ディ": 30625, "ベル": 30626, "ău": 30627, "țe": 30628, " ū": 30629, "!*\\": 30630, "bnb": 30631, "ोज़": 30632, "ी": 30633, "mrc": 30634, " jl": 30635, "🐞": 30636, "èo": 30637, "⠉": 30638, "チ": 30639, "イ": 30640, "ラ": 30641, "且": 30642, "अ": 30643, "च": 30644, "इल": 30645, "չ": 30646, "ཆ": 30647, "치": 30648, "ชี": 30649, " کم": 30650, "औ": 30651, "_[": 30652, "واج": 30653, "کل": 30654, "ِّ": 30655, "زو": 30656, "ناک": 30657, "کان": 30658, "فع": 30659, "است": 30660, "فت": 30661, "یل": 30662, " ی": 30663, "غن": 30664, "ضل": 30665, "éra": 30666, "trp": 30667, " hæ": 30668, "ень": 30669, "΄": 30670, "uak": 30671, "以下": 30672, "リスク": 30673, "を引き": 30674, "起こ": 30675, "す": 30676, "!);": 30677, ":]": 30678, "^*": 30679, "ərb": 30680, "🤐": 30681, "😑": 30682, "🥱": 30683, "шт": 30684, "ус": 30685, "🍰": 30686, "صد": 30687, "زال": 30688, "ghi": 30689, "mpc": 30690, "mcp": 30691, ",~": 30692, "зм": 30693, "gry": 30694, "lax": 30695, " }]": 30696, " ][": 30697, " θε": 30698, "میر": 30699, "řej": 30700, "ína": 30701, "uah": 30702, "٧": 30703, "鋼": 30704, "錬": 30705, "術": 30706, "師": 30707, "jut": 30708, "🧀": 30709, " ख": 30710, "ण्ड": 30711, "🧍": 30712, "qld": 30713, "odb": 30714, ";|": 30715, "':'": 30716, "​,": 30717, "/{": 30718, "pré": 30719, "'+": 30720, " ép": 30721, ").]": 30722, ">\\<": 30723, "ικό": 30724, " ग": 30725, "ंदी": 30726, "óc": 30727, "šk": 30728, "ورت": 30729, " شر": 30730, " نب": 30731, "și": 30732, "모": 30733, "던": 30734, "파": 30735, "머": 30736, "ftr": 30737, "$/": 30738, "🎆": 30739, "🎊": 30740, "🎋": 30741, "🎍": 30742, "🎎": 30743, "🎏": 30744, "ᴛ": 30745, " té": 30746, "más": 30747, "zro": 30748, "cuo": 30749, "ώ": 30750, "ργ": 30751, "ιος": 30752, "ток": 30753, "пка": 30754, " dò": 30755, ":\"\"": 30756, "私が": 30757, "ない": 30758, "のは": 30759, "どう": 30760, "考えて": 30761, "もお": 30762, "前": 30763, "らが": 30764, "悪い": 30765, "わた": 30766, "驱动": 30767, "工具": 30768, "加速": 30769, " 内容": 30770, "格式": 30771, "设置": 30772, "力的": 30773, "演示": 30774, "文": 30775, "稿": 30776, "软件": 30777, "打造": 30778, "完美的": 30779, "融资": 30780, "方案": 30781, "nds": 30782, "εν": 30783, "δες": 30784, " ζ": 30785, "μπο": 30786, "λια": 30787, " је": 30788, " ах": 30789, "idh": 30790, " xw": 30791, "cps": 30792, "lja": 30793, "🥕": 30794, "🏵": 30795, "hlt": 30796, "fäh": 30797, "öpf": 30798, " añ": 30799, "🔊": 30800, "rsp": 30801, "\"—": 30802, " ná": 30803, "ås": 30804, "ţă": 30805, "ír": 30806, "ěl": 30807, " ר": 30808, "כי": 30809, "сам": 30810, " це": 30811, "луб": 30812, "язы": 30813, "ioi": 30814, "dds": 30815, "ié": 30816, "꧁": 30817, "꧂": 30818, "ìn": 30819, "🍅": 30820, " ქ": 30821, "ოს": 30822, "რო": 30823, ".+\\": 30824, "[:": 30825, "\u001a": 30826, "vé": 30827, "hör": 30828, "жи": 30829, "🛣": 30830, "🅿": 30831, "ddd": 30832, "fae": 30833, "ctg": 30834, "🌌": 30835, " ví": 30836, " jy": 30837, "вец": 30838, "irr": 30839, "ғ": 30840, " دي": 30841, "ارب": 30842, "国": 30843, "徽": 30844, "图案": 30845, "说明": 30846, " .'": 30847, " 범": 30848, "인은": 30849, " 바로": 30850, " 너": 30851, " _.": 30852, "\"}": 30853, "-_-": 30854, ".\")": 30855, "щи": 30856, "ény": 30857, "њ": 30858, "čin": 30859, "aia": 30860, "srt": 30861, "🔶": 30862, "тка": 30863, "])-": 30864, " rā": 30865, "جد": 30866, "اهر": 30867, "ῖ": 30868, "svm": 30869, "щ": 30870, "ânt": 30871, "مل": 30872, "قات": 30873, "🏬": 30874, "🏨": 30875, "堺": 30876, "市": 30877, "ijj": 30878, "ذك": 30879, "ذكر": 30880, "mts": 30881, "orh": 30882, "]);": 30883, "acb": 30884, "adə": 30885, "тно": 30886, " い": 30887, "ば": 30888, "王": 30889, "zyk": 30890, "сса": 30891, "🤙": 30892, "☘": 30893, "🏂": 30894, "pdp": 30895, " >,": 30896, " ль": 30897, "nä": 30898, "idx": 30899, " qq": 30900, "кин": 30901, "dgs": 30902, "ới": 30903, " υ": 30904, "sé": 30905, "āti": 30906, "γη": 30907, "γν": 30908, "μι": 30909, "κο": 30910, "ϕ": 30911, "ώ": 30912, "加": 30913, "奶": 30914, " nă": 30915, "孟": 30916, "èng": 30917, "理": 30918, "义": 30919, "仁": 30920, "孝": 30921, "ào": 30922, "🇴": 30923, "異": 30924, "异": 30925, "étr": 30926, "eté": 30927, "ล": 30928, "ึ": 30929, "น่า": 30930, "กล": 30931, "ัว": 30932, "ính": 30933, "то": 30934, "[@": 30935, " (|": 30936, "🪴": 30937, "🍝": 30938, "ysc": 30939, "桓": 30940, "檀": 30941, "石": 30942, "槐": 30943, "ần": 30944, "ận": 30945, "ảo": 30946, " zk": 30947, " =,": 30948, "เค": 30949, "ียง": 30950, " rę": 30951, "ätt": 30952, "під": 30953, "ю": 30954, "☏": 30955, "mua": 30956, "].”": 30957, "📺": 30958, "🏞": 30959, " pz": 30960, "bjp": 30961, "dsc": 30962, "ун": 30963, "($": 30964, "}[": 30965, "að": 30966, "uus": 30967, ":[/": 30968, "\"_": 30969, "펜": 30970, "타": 30971, "곤": 30972, "csf": 30973, " пі": 30974, "сні": 30975, "♀": 30976, "يط": 30977, "áil": 30978, "oed": 30979, "}\")": 30980, " []": 30981, ",))": 30982, " ": 30983, "": 30984, "чей": 30985, "бий": 30986, "цы": 30987, "но": 30988, "сть": 30989, "пу": 30990, "дра": 30991, "^(": 30992, "²+": 30993, "oja": 30994, "ørn": 30995, "шы": 30996, "рда": 30997, "рма": 30998, "қ": 30999, "bdd": 31000, "🛎": 31001, "oq": 31002, "pdo": 31003, "odh": 31004, "({": 31005, "🔅": 31006, "🔰": 31007, "’.”": 31008, "λά": 31009, "𝗩": 31010, "𝗽": 31011, "𝗹": 31012, "зре": 31013, "рой": 31014, "су": 31015, "ще": 31016, "мый": 31017, " эф": 31018, " хи": 31019, " ду": 31020, "peł": 31021, "قی": 31022, " سا": 31023, "عدة": 31024, "🍛": 31025, "🍚": 31026, "🍤": 31027, "🍲": 31028, "\"`": 31029, "😴": 31030, "🧒": 31031, "🕸": 31032, "🐇": 31033, "árl": 31034, " tó": 31035, "}}+": 31036, "ʂ": 31037, ":</": 31038, "=\"\"": 31039, "\">&": 31040, "体": 31041, "體": 31042, "ánt": 31043, "ǐ": 31044, " بر": 31045, "يقة": 31046, "mij": 31047, "نی": 31048, "فه": 31049, "وری": 31050, "ojn": 31051, "月": 31052, "姫": 31053, "]?": 31054, "dmg": 31055, "orr": 31056, "шин": 31057, "ња": 31058, "̩": 31059, "ɕ": 31060, " œ": 31061, "τι": 31062, "gau": 31063, "کی": 31064, "飞": 31065, "号": 31066, "航": 31067, "服": 31068, "ēi": 31069, "áng": 31070, "̬": 31071, "ɚ": 31072, "結晶": 31073, "間": 31074, "结": 31075, "晶": 31076, "间的": 31077, " ке": 31078, "дер": 31079, "үй": 31080, "чү": 31081, "өр": 31082, "чы": 31083, " ар": 31084, " да": 31085, "йы": 31086, "зда": 31087, "ке": 31088, "гон": 31089, "кы": 31090, "тта": 31091, " ти": 31092, "зме": 31093, " ы": 31094, " кө": 31095, "үр": 31096, "гө": 31097, "алы": 31098, "мат": 31099, "кей": 31100, "ەد": 31101, "uiu": 31102, "熊本": 31103, "空港": 31104, "ս": 31105, "ارس": 31106, "ßer": 31107, "ßt": 31108, "ही": 31109, "राम": 31110, "ंडी": 31111, " द": 31112, "मंड": 31113, "ज़ार": 31114, "\")[": 31115, "ܓ": 31116, "ܙ": 31117, "ܬܐ": 31118, "ܒ": 31119, "ܝ": 31120, "ܬ": 31121, "ܢ": 31122, "ܗ": 31123, "ܝܢ": 31124, "🦠": 31125, "電": 31126, "波": 31127, "回復": 31128, " だ": 31129, "ぱ": 31130, "ん": 31131, "便利": 31132, "アプリ": 31133, "第": 31134, "１": 31135, "弾": 31136, "شی": 31137, "=#": 31138, "🍟": 31139, "жда": 31140, "]|": 31141, "宍": 31142, "倉": 31143, "邦": 31144, "枝": 31145, "ään": 31146, "كلم": 31147, " ]]": 31148, "uae": 31149, "/$": 31150, " ச": 31151, "ц": 31152, ";$": 31153, "kq": 31154, "pfl": 31155, "пан": 31156, "сия": 31157, "lín": 31158, "♪": 31159, "agc": 31160, "gpa": 31161, "９": 31162, "～": 31163, "=\"$": 31164, " há": 31165, " hú": 31166, "(?)": 31167, "لاق": 31168, "ḗ": 31169, "λης": 31170, " ©️": 31171, "\"@": 31172, "κού": 31173, "ҡ": 31174, "բ": 31175, "ու": 31176, " בא": 31177, "קו": 31178, "कु": 31179, "कू": 31180, "ু": 31181, " பா": 31182, " ബ": 31183, " บ": 31184, "าก": 31185, "ู": 31186, "པ": 31187, "ཱ": 31188, "་": 31189, "ཁ": 31190, "།": 31191, " ባ": 31192, "ኩ": 31193, " バ": 31194, "クー": 31195, " 巴": 31196, "库": 31197, " 바": 31198, "쿠": 31199, "ādi": 31200, "ե": 31201, "ռ": 31202, "ույ": 31203, " ხ": 31204, "طة": 31205, "نية": 31206, "🦄": 31207, "(\"%": 31208, "giv": 31209, "moi": 31210, "ách": 31211, "ادي": 31212, "dnf": 31213, "woh": 31214, " ym": 31215, "zał": 31216, "ὕ": 31217, "voř": 31218, "äch": 31219, "μον": 31220, "μός": 31221, "úng": 31222, "ۆ": 31223, "يال": 31224, "سى": 31225, " ۋ": 31226, "تى": 31227, "萨": 31228, "薩": 31229, "lí": 31230, "ōu": 31231, "塔": 31232, "城": 31233, "勒": 31234, "泰": 31235, "èt": 31236, "ài": 31237, "察": 31238, "查": 31239, "锡": 31240, "伯": 31241, "县": 31242, "áb": 31243, "ěr": 31244, "īb": 31245, "乌": 31246, "孙": 31247, "孫": 31248, "匈": 31249, "奴": 31250, "ōng": 31251, "nú": 31252, "生产": 31253, "建设": 31254, "团": 31255, "生產": 31256, "建設": 31257, "團": 31258, "nji": 31259, "ēng": 31260, "ǎn": 31261, "īng": 31262, "cch": 31263, "âmb": 31264, " ▪": 31265, "wpt": 31266, "äk": 31267, "ӑ": 31268, "nij": 31269, "保": 31270, "汗": 31271, " kè": 31272, "ый": 31273, "ך": 31274, "odm": 31275, "ogf": 31276, "ttf": 31277, "🎣": 31278, "بین": 31279, "xyl": 31280, "✎": 31281, "👒": 31282, " }(": 31283, "}}-": 31284, "}+\\": 31285, "}{\\": 31286, " })": 31287, " מל": 31288, " ס": 31289, "ית": 31290, " בע": 31291, "ufe": 31292, "yta": 31293, "ları": 31294, "leri": 31295, "inde": 31296, "ında": 31297, "inin": 31298, "iler": 31299, "eler": 31300, "ının": 31301, "ması": 31302, "iniz": 31303, "ınız": 31304, "mesi": 31305, "alar": 31306, "arda": 31307, "idir": 31308, "ıyor": 31309, "ilen": 31310, "lara": 31311, "unda": 31312, "iyor": 31313, "ilir": 31314, "liği": 31315, "unuz": 31316, "lığı": 31317, "unun": 31318, "lere": 31319, "ğini": 31320, "leme": 31321, "ılar": 31322, "ılır": 31323, "maya": 31324, "lama": 31325, "ılan": 31326, "anın": 31327, "ular": 31328, "ştir": 31329, "abil": 31330, "ılık": 31331, "uyor": 31332, "ünde": 31333, " i̇ç": 31334, "iyet": 31335, "imiz": 31336, "meye": 31337, "adan": 31338, "anan": 31339, "deki": 31340, "isel": 31341, "alan": 31342, "eden": 31343, " i̇ş": 31344, "ildi": 31345, "ilik": 31346, "ımız": 31347, "ayın": 31348, "laşt": 31349, "anda": 31350, "iyat": 31351, "ırma": 31352, " ned": 31353, "üler": 31354, "daki": 31355, "elik": 31356, "ulan": 31357, "iren": 31358, "mayı": 31359, "irim": 31360, "ceği": 31361, "ayan": 31362, "iyon": 31363, "ıldı": 31364, "resi": 31365, "olar": 31366, "arın": 31367, "irme": 31368, "lend": 31369, "endi": 31370, "ünün": 31371, "land": 31372, "ktan": 31373, "irdi": 31374, "elen": 31375, "ince": 31376, "amak": 31377, "iden": 31378, "uluk": 31379, "pler": 31380, "iril": 31381, "enin": 31382, "ılım": 31383, "umlu": 31384, "arlı": 31385, "kanı": 31386, "ıyla": 31387, "ıdır": 31388, "ğine": 31389, "...\\": 31390, "aman": 31391, "imes": 31392, "medi": 31393, "iley": 31394, "orum": 31395, "imin": 31396, "ledi": 31397, "udur": 31398, "laşı": 31399, "aret": 31400, "izin": 31401, "erez": 31402, "ital": 31403, "asal": 31404, "ığın": 31405, "ansı": 31406, "andı": 31407, "orsa": 31408, "yler": 31409, "usal": 31410, "alık": 31411, "anız": 31412, "mler": 31413, "eniz": 31414, "meyi": 31415, "azar": 31416, "etik": 31417, "lüğü": 31418, "item": 31419, "nsan": 31420, "elle": 31421, "emin": 31422, "ulam": 31423, "amaz": 31424, "luğu": 31425, "izde": 31426, "umuz": 31427, "ayar": 31428, "elli": 31429, "ığım": 31430, "ilde": 31431, "atta": 31432, "ette": 31433, "inen": 31434, "ence": 31435, "ktir": 31436, "atan": 31437, "avaş": 31438, "imli": 31439, "ıklı": 31440, "etli": 31441, " i̇s": 31442, "deme": 31443, "irin": 31444, "atik": 31445, "ümüz": 31446, "adır": 31447, "reci": 31448, "üyor": 31449, "angi": 31450, "ayet": 31451, "gesi": 31452, "uran": 31453, "eyen": 31454, " i̇l": 31455, "ites": 31456, " uyg": 31457, "ariş": 31458, "ordu": 31459, "ırım": 31460, "urdu": 31461, "ıntı": 31462, "ancı": 31463, "ınca": 31464, "rece": 31465, "enek": 31466, "akta": 31467, "dürü": 31468, "ydın": 31469, " i̇n": 31470, "abet": 31471, "imde": 31472, "ğunu": 31473, "etti": 31474, "rail": 31475, "yesi": 31476, " hiz": 31477, "arım": 31478, "ıllı": 31479, "iral": 31480, "ımda": 31481, "anya": 31482, "leşt": 31483, "rede": 31484, "türk": 31485, "alam": 31486, "etin": 31487, "amas": 31488, "ster": 31489, "ütün": 31490, "alet": 31491, "ladı": 31492, "duğu": 31493, " pro": 31494, "alım": 31495, "manı": 31496, "enen": 31497, "makt": 31498, "oloj": 31499, "lene": 31500, "ocuk": 31501, "msız": 31502, "erin": 31503, "aran": 31504, "ende": 31505, "siye": 31506, "ikte": 31507, "irse": 31508, "ünüz": 31509, "yeni": 31510, "amad": 31511, "ates": 31512, "anca": 31513, " ios": 31514, "diği": 31515, " cev": 31516, "emen": 31517, "uldu": 31518, " sok": 31519, "zzet": 31520, "ızlı": 31521, "ilim": 31522, "zers": 31523, " uns": 31524, " ...": 31525, " gül": 31526, "inal": 31527, "arat": 31528, "ğraf": 31529, "ştur": 31530, " teh": 31531, " iht": 31532, "iyah": 31533, " ins": 31534, " maa": 31535, " içi": 31536, "kate": 31537, "argo": 31538, "atif": 31539, "ifik": 31540, "illi": 31541, "elim": 31542, "bile": 31543, " i̇m": 31544, "ikli": 31545, "tern": 31546, " muh": 31547, " taz": 31548, "arla": 31549, "iris": 31550, "fler": 31551, "ikal": 31552, "eker": 31553, "reli": 31554, "amız": 31555, "best": 31556, "itle": 31557, "erde": 31558, "mini": 31559, "aber": 31560, "inci": 31561, " sey": 31562, "teki": 31563, "iled": 31564, "orta": 31565, "atak": 31566, " şeh": 31567, "ural": 31568, "madı": 31569, "rimi": 31570, "ukat": 31571, "iliz": 31572, " müm": 31573, "künd": 31574, "lant": 31575, " lis": 31576, "araf": 31577, "emek": 31578, "ysel": 31579, " dos": 31580, " tic": 31581, "onda": 31582, " mer": 31583, "ndan": 31584, " kil": 31585, "ivil": 31586, " mar": 31587, " ing": 31588, " med": 31589, "kara": 31590, " rak": 31591, " eki": 31592, "akan": 31593, "anak": 31594, "ımın": 31595, " you": 31596, "lana": 31597, " ken": 31598, " for": 31599, "latt": 31600, "i̇lk": 31601, " dep": 31602, "arma": 31603, "elin": 31604, " yab": 31605, "keme": 31606, "ekte": 31607, " atm": 31608, "eken": 31609, "ayla": 31610, "ynam": 31611, "iket": 31612, "cısı": 31613, " nak": 31614, "atal": 31615, "klad": 31616, "ecan": 31617, "oğlu": 31618, " hus": 31619, " ded": 31620, "azen": 31621, "avis": 31622, "imat": 31623, "rene": 31624, "eyse": 31625, "else": 31626, " gru": 31627, "unan": 31628, "afir": 31629, " i̇z": 31630, "unca": 31631, "imal": 31632, "cede": 31633, "alle": 31634, "aban": 31635, "leye": 31636, "htar": 31637, "avas": 31638, "ylar": 31639, " gib": 31640, "şağı": 31641, "teri": 31642, " kre": 31643, " fik": 31644, "evet": 31645, "aden": 31646, "rakt": 31647, "kiye": 31648, "ardı": 31649, " ent": 31650, "idan": 31651, "olog": 31652, "arsa": 31653, "mada": 31654, "beri": 31655, " ked": 31656, "alış": 31657, "klik": 31658, "liye": 31659, " rek": 31660, "ehir": 31661, "nden": 31662, " sul": 31663, "anta": 31664, " elb": 31665, " tes": 31666, "iber": 31667, "mdan": 31668, " dak": 31669, "ıştı": 31670, " att": 31671, "eles": 31672, "uman": 31673, " old": 31674, "leti": 31675, "eyim": 31676, "üyük": 31677, "ters": 31678, " örg": 31679, "akat": 31680, "ihan": 31681, "cell": 31682, "defl": 31683, "uyan": 31684, "iner": 31685, " nok": 31686, " ren": 31687, "tere": 31688, "ilet": 31689, "plan": 31690, "iyan": 31691, "iyot": 31692, "itim": 31693, "inim": 31694, " ces": 31695, "lard": 31696, " soh": 31697, "aset": 31698, "eder": 31699, "ider": 31700, "anam": 31701, "atar": 31702, "gede": 31703, "urul": 31704, "aire": 31705, "eşit": 31706, " cen": 31707, "emiz": 31708, "amay": 31709, " sek": 31710, "ursa": 31711, "mede": 31712, "ises": 31713, " alk": 31714, "hler": 31715, " köş": 31716, "elde": 31717, "enti": 31718, "ator": 31719, "sett": 31720, "irli": 31721, "ilit": 31722, "ayım": 31723, "azer": 31724, "öyle": 31725, "ener": 31726, "iyim": 31727, "rist": 31728, "urta": 31729, "mail": 31730, " beb": 31731, "nder": 31732, " may": 31733, "ümüş": 31734, "indi": 31735, " sel": 31736, " alm": 31737, "jesi": 31738, " imz": 31739, "avan": 31740, "isin": 31741, " köt": 31742, "adaş": 31743, " num": 31744, "urun": 31745, "atin": 31746, "urum": 31747, "anlı": 31748, "rası": 31749, "ares": 31750, "meti": 31751, " vir": 31752, " biy": 31753, "adas": 31754, "imdi": 31755, " mad": 31756, " sad": 31757, "uncu": 31758, "ilin": 31759, "idin": 31760, " bug": 31761, "lete": 31762, "ited": 31763, "azan": 31764, "adım": 31765, " beğ": 31766, "redi": 31767, "kend": 31768, "ades": 31769, "obil": 31770, " eti": 31771, " olu": 31772, "ansa": 31773, "inya": 31774, "aras": 31775, "aled": 31776, "este": 31777, "ales": 31778, "dial": 31779, "aram": 31780, "maks": 31781, "olon": 31782, " geb": 31783, "aile": 31784, " mek": 31785, "ines": 31786, "apat": 31787, " tit": 31788, "cret": 31789, "iten": 31790, "ilya": 31791, "iman": 31792, "itti": 31793, "olda": 31794, "ened": 31795, "abal": 31796, "alya": 31797, " ord": 31798, " tet": 31799, "eral": 31800, " chp": 31801, "arya": 31802, "amal": 31803, "eter": 31804, "anyo": 31805, " eve": 31806, "evre": 31807, "arik": 31808, "utan": 31809, "başı": 31810, "abul": 31811, "amam": 31812, "renc": 31813, " lek": 31814, "üren": 31815, "stri": 31816, "ahat": 31817, " reç": 31818, "itif": 31819, "ınar": 31820, "aten": 31821, " int": 31822, "lisi": 31823, "ikat": 31824, "hane": 31825, "unum": 31826, "ftan": 31827, "engi": 31828, "iliy": 31829, "dest": 31830, "adet": 31831, " dom": 31832, " gal": 31833, " yur": 31834, "masa": 31835, " rit": 31836, " civ": 31837, " oks": 31838, " hed": 31839, "iles": 31840, " hij": 31841, "rama": 31842, "apis": 31843, "meni": 31844, " dud": 31845, " idd": 31846, "rate": 31847, "üman": 31848, "ikan": 31849, "etic": 31850, " nad": 31851, " are": 31852, " mac": 31853, "heli": 31854, " ves": 31855, "rupa": 31856, " esc": 31857, " rad": 31858, "iran": 31859, " ola": 31860, "atih": 31861, "spor": 31862, " ust": 31863, " ziy": 31864, "amin": 31865, "edik": 31866, "like": 31867, " mob": 31868, " ecz": 31869, "ulum": 31870, "omet": 31871, "önet": 31872, "play": 31873, "ünkü": 31874, " seo": 31875, "amik": 31876, "mana": 31877, "müşt": 31878, "eple": 31879, "stit": 31880, "akal": 31881, "reme": 31882, "ikir": 31883, " alb": 31884, "iter": 31885, "amet": 31886, "egen": 31887, "apay": 31888, "amba": 31889, "eten": 31890, "elis": 31891, " الإ": 31892, "lang": 31893, "fini": 31894, "ylen": 31895, "atur": 31896, "olan": 31897, "kans": 31898, "ahan": 31899, "ense": 31900, "arca": 31901, "izes": 31902, "bind": 31903, "ylem": 31904, "ijen": 31905, "lice": 31906, "anal": 31907, "itas": 31908, " çoc": 31909, "acat": 31910, "line": 31911, "eres": 31912, "erme": 31913, "just": 31914, " viz": 31915, "atma": 31916, "kent": 31917, "rafl": 31918, "ikon": 31919, "anti": 31920, " vas": 31921, " kuy": 31922, "enge": 31923, " ten": 31924, " nec": 31925, "alat": 31926, "atro": 31927, " erm": 31928, " ağı": 31929, "apor": 31930, "emed": 31931, "alay": 31932, "port": 31933, "apan": 31934, " ihr": 31935, " nih": 31936, "ered": 31937, "alla": 31938, "asan": 31939, " kri": 31940, "emel": 31941, "slam": 31942, " zey": 31943, "iste": 31944, "arde": 31945, "aket": 31946, " muk": 31947, " orm": 31948, " suy": 31949, "apar": 31950, "zeme": 31951, "nesi": 31952, "yles": 31953, "ören": 31954, "itik": 31955, " aff": 31956, "roid": 31957, "itel": 31958, "post": 31959, " الق": 31960, " was": 31961, "inat": 31962, "opat": 31963, "imen": 31964, " evi": 31965, "eyiz": 31966, " muc": 31967, " bud": 31968, "keye": 31969, "undu": 31970, "levi": 31971, " yav": 31972, " cum": 31973, " val": 31974, "bank": 31975, " ihm": 31976, "yled": 31977, " pam": 31978, "lars": 31979, "yeri": 31980, " ber": 31981, "ille": 31982, " vic": 31983, "nthe": 31984, "gele": 31985, "aray": 31986, "ahit": 31987, "onom": 31988, " fiz": 31989, "esis": 31990, "aren": 31991, "reti": 31992, "sept": 31993, " kuv": 31994, "ihin": 31995, "isti": 31996, "lede": 31997, "sten": 31998, " cok": 31999, "iken": 32000, "eren": 32001, "zuat": 32002, "yman": 32003, "arin": 32004, "isim": 32005, "name": 32006, " ert": 32007, "anne": 32008, " idi": 32009, "erap": 32010, "aniy": 32011, "plik": 32012, " bon": 32013, "celi": 32014, "reni": 32015, " yah": 32016, "isan": 32017, "oter": 32018, " fin": 32019, " vel": 32020, "urus": 32021, "rett": 32022, "iyaç": 32023, "ices": 32024, "foto": 32025, " bül": 32026, " cüm": 32027, " fig": 32028, "ikas": 32029, "ller": 32030, "ript": 32031, "orda": 32032, "emde": 32033, "onya": 32034, "ides": 32035, " ner": 32036, "udan": 32037, "inek": 32038, " dir": 32039, "ined": 32040, "hten": 32041, "inda": 32042, "list": 32043, "ante": 32044, "esin": 32045, "pres": 32046, " all": 32047, "yard": 32048, "prof": 32049, "iyas": 32050, " rut": 32051, " pdf": 32052, "cade": 32053, "adem": 32054, "ahin": 32055, " usb": 32056, "ojen": 32057, " cis": 32058, "etes": 32059, " ith": 32060, "rete": 32061, "ubuk": 32062, "eket": 32063, "link": 32064, "kamu": 32065, "arap": 32066, "rika": 32067, "seye": 32068, "ibar": 32069, "slan": 32070, "akin": 32071, "ulay": 32072, "aday": 32073, "ikey": 32074, "ahal": 32075, " dis": 32076, "desi": 32077, "ymet": 32078, " eme": 32079, "amen": 32080, "azin": 32081, " fot": 32082, "ikle": 32083, "leer": 32084, " mam": 32085, "ivas": 32086, "vara": 32087, "imid": 32088, " koc": 32089, "embe": 32090, "faat": 32091, "izmi": 32092, "renk": 32093, "fter": 32094, "olos": 32095, " inf": 32096, " nel": 32097, "mark": 32098, "cuda": 32099, " des": 32100, "ilat": 32101, "alin": 32102, "ubat": 32103, "iser": 32104, "ente": 32105, "olab": 32106, "aliy": 32107, "anes": 32108, "ermi": 32109, " unu": 32110, " mag": 32111, "mine": 32112, " ili": 32113, "read": 32114, " riv": 32115, "valt": 32116, "....": 32117, " zul": 32118, " ini": 32119, " www": 32120, "emat": 32121, "akar": 32122, "ikam": 32123, "alen": 32124, " siv": 32125, "mama": 32126, "stra": 32127, "dari": 32128, " hoc": 32129, " eld": 32130, "ocam": 32131, "zler": 32132, " lay": 32133, " bag": 32134, "asta": 32135, " nis": 32136, "kron": 32137, "otiv": 32138, "trab": 32139, "irne": 32140, "rali": 32141, "utta": 32142, "irmi": 32143, "anus": 32144, "izma": 32145, "amer": 32146, " fre": 32147, "ylül": 32148, " sıv": 32149, "aris": 32150, " vpn": 32151, "apon": 32152, "hend": 32153, "ures": 32154, "emes": 32155, "test": 32156, "oran": 32157, "bare": 32158, "phan": 32159, "size": 32160, "omas": 32161, "erve": 32162, "vans": 32163, "sini": 32164, " dez": 32165, "orul": 32166, " emp": 32167, "rand": 32168, " vit": 32169, "edin": 32170, "itin": 32171, "oban": 32172, "ason": 32173, "aker": 32174, "must": 32175, "lari": 32176, "erra": 32177, " max": 32178, "mara": 32179, " air": 32180, " akp": 32181, "asar": 32182, "raya": 32183, "ires": 32184, "ecer": 32185, "ayam": 32186, "vede": 32187, "raft": 32188, "oper": 32189, "imet": 32190, "ilan": 32191, "iver": 32192, " lev": 32193, "isar": 32194, " cad": 32195, "ştik": 32196, " led": 32197, "lini": 32198, "uduk": 32199, "tele": 32200, "inas": 32201, " miz": 32202, " one": 32203, "ilis": 32204, "inko": 32205, "bild": 32206, "edit": 32207, "idor": 32208, "umar": 32209, "iddi": 32210, "urup": 32211, "oped": 32212, "emer": 32213, "enci": 32214, "kten": 32215, "kamp": 32216, " von": 32217, "azes": 32218, " müş": 32219, "rini": 32220, "alli": 32221, "vens": 32222, "ftar": 32223, "para": 32224, " pap": 32225, "asad": 32226, "amon": 32227, "ukur": 32228, "apad": 32229, "veli": 32230, "klas": 32231, "ifte": 32232, "stan": 32233, " vaj": 32234, "adel": 32235, "ский": 32236, "oton": 32237, "rend": 32238, "adir": 32239, " sed": 32240, " анг": 32241, " sub": 32242, "ihar": 32243, "kurt": 32244, " ceo": 32245, "mand": 32246, " deg": 32247, "form": 32248, "rana": 32249, "ksen": 32250, "illa": 32251, "ules": 32252, " kud": 32253, " pen": 32254, "erit": 32255, " fed": 32256, " müs": 32257, "etil": 32258, "ress": 32259, "imek": 32260, "kati": 32261, "veri": 32262, " pkk": 32263, "tten": 32264, " rez": 32265, " pem": 32266, "atay": 32267, "umas": 32268, "anka": 32269, " mol": 32270, " sic": 32271, " itt": 32272, "anki": 32273, "oley": 32274, " apt": 32275, " mon": 32276, "meme": 32277, "eref": 32278, " toh": 32279, "ibin": 32280, "abas": 32281, "ayat": 32282, " ere": 32283, "inti": 32284, "rese": 32285, "inam": 32286, "bine": 32287, "pert": 32288, "lden": 32289, " fet": 32290, "rens": 32291, "ames": 32292, "slim": 32293, "olla": 32294, " lik": 32295, "buch": 32296, "gara": 32297, "star": 32298, " ssd": 32299, "feri": 32300, " […]": 32301, "eksi": 32302, "akas": 32303, "olit": 32304, " zel": 32305, "ahar": 32306, "kova": 32307, "ella": 32308, "vent": 32309, " sms": 32310, " mün": 32311, "edil": 32312, "arka": 32313, " yor": 32314, " ale": 32315, "odik": 32316, "iras": 32317, "site": 32318, "iday": 32319, "atas": 32320, " emb": 32321, "stek": 32322, "vide": 32323, " buh": 32324, " our": 32325, "ifle": 32326, "blog": 32327, "ibir": 32328, "kart": 32329, "isch": 32330, "rasi": 32331, "imon": 32332, "imar": 32333, "arek": 32334, "rine": 32335, " lak": 32336, " fan": 32337, "ents": 32338, "alem": 32339, " hic": 32340, "orus": 32341, "izer": 32342, "alis": 32343, "nete": 32344, "usun": 32345, " opt": 32346, " ras": 32347, " him": 32348, "flat": 32349, "edio": 32350, "hana": 32351, "mart": 32352, "film": 32353, "bett": 32354, "ater": 32355, " lan": 32356, " hid": 32357, "ibur": 32358, "deal": 32359, "otek": 32360, "vary": 32361, "imed": 32362, "adar": 32363, "span": 32364, "time": 32365, "saat": 32366, " arg": 32367, "fine": 32368, "yang": 32369, "this": 32370, "ders": 32371, "zeni": 32372, "stro": 32373, "elte": 32374, "defe": 32375, "olik": 32376, "lett": 32377, "öner": 32378, "copy": 32379, "stat": 32380, "vale": 32381, "arta": 32382, " gre": 32383, "ivan": 32384, "ütte": 32385, "rupt": 32386, "kimi": 32387, " niy": 32388, "alda": 32389, " cil": 32390, "ized": 32391, " cal": 32392, "sede": 32393, "elif": 32394, "bell": 32395, " rev": 32396, "usta": 32397, "burn": 32398, "ayas": 32399, "avat": 32400, "umba": 32401, " egz": 32402, "graf": 32403, "iker": 32404, "ucus": 32405, " sov": 32406, " fab": 32407, "vind": 32408, "insi": 32409, "fred": 32410, "osit": 32411, "http": 32412, "inar": 32413, " tra": 32414, "ader": 32415, "lekt": 32416, " mot": 32417, " ans": 32418, "nger": 32419, "icis": 32420, "ieck": 32421, " pud": 32422, " neh": 32423, " div": 32424, "erçe": 32425, "azas": 32426, "alma": 32427, " app": 32428, "hbar": 32429, " cas": 32430, " cih": 32431, " vol": 32432, "yani": 32433, "apak": 32434, " iso": 32435, " viv": 32436, " use": 32437, "dere": 32438, "bold": 32439, "lers": 32440, "aton": 32441, "abad": 32442, "hast": 32443, "mano": 32444, "kale": 32445, " arm": 32446, "lent": 32447, "ersi": 32448, "odan": 32449, "abel": 32450, "emir": 32451, "ided": 32452, "arif": 32453, " amp": 32454, "idar": 32455, "ised": 32456, "inet": 32457, "mese": 32458, " rej": 32459, " hob": 32460, "apur": 32461, "ukun": 32462, "haba": 32463, " spe": 32464, " tec": 32465, " api": 32466, "rest": 32467, "itte": 32468, " sud": 32469, "infl": 32470, "assa": 32471, " nin": 32472, " kib": 32473, " nor": 32474, " url": 32475, "mete": 32476, " muy": 32477, " gro": 32478, "stil": 32479, "anim": 32480, "oner": 32481, " ltd": 32482, "diri": 32483, "dare": 32484, "asin": 32485, "hlas": 32486, "alka": 32487, "ayak": 32488, "olat": 32489, "hesi": 32490, "adam": 32491, "kont": 32492, "lava": 32493, "unus": 32494, "ived": 32495, "umur": 32496, "omat": 32497, "onal": 32498, "acan": 32499, "iple": 32500, "eman": 32501, " mig": 32502, " sep": 32503, "caya": 32504, "ance": 32505, "ilar": 32506, "kana": 32507, "kind": 32508, "ibat": 32509, "ethi": 32510, "fill": 32511, " pri": 32512, "stem": 32513, "term": 32514, " hib": 32515, "veni": 32516, "omen": 32517, "hind": 32518, "isen": 32519, "iret": 32520, " gun": 32521, " who": 32522, "iyar": 32523, "bull": 32524, "mets": 32525, " how": 32526, "nite": 32527, "jekt": 32528, "iyal": 32529, "bund": 32530, "ahir": 32531, " ank": 32532, " tev": 32533, "sele": 32534, "aded": 32535, "izon": 32536, " aid": 32537, "ment": 32538, " ols": 32539, "idem": 32540, "tart": 32541, "init": 32542, "unam": 32543, "...\"": 32544, "benz": 32545, "roma": 32546, " dog": 32547, "otal": 32548, "fran": 32549, " cah": 32550, "ikar": 32551, " blo": 32552, "tegr": 32553, " sag": 32554, "amel": 32555, "aysa": 32556, "ovan": 32557, "abin": 32558, "word": 32559, " ssl": 32560, "nike": 32561, "akit": 32562, "pend": 32563, "imum": 32564, "dana": 32565, " hom": 32566, " keç": 32567, "rafa": 32568, " lit": 32569, " pip": 32570, "over": 32571, "rolo": 32572, "hatt": 32573, " obj": 32574, "uras": 32575, " lac": 32576, " hen": 32577, "park": 32578, "enem": 32579, " fps": 32580, "hire": 32581, "tres": 32582, " cpu": 32583, "file": 32584, "serv": 32585, " los": 32586, " spa": 32587, "addi": 32588, "imer": 32589, "esti": 32590, "lar": 32767, "ler": 32766, "ya": 32765, "ye": 32764, "ma": 32763, "me": 32762, "malı": 32761, "meli": 32760, "laş": 32759, "leş": 32758, "ça": 32757, "çe": 32756, "şar": 32755, "şer": 32754, "kan": 32753, "ken": 32752, "lak": 32751, "lek": 32750, "layın": 32749, "leyin": 32748, "sak": 32747, "sek": 32746, "arak": 32745, "erek": 32744, "an": 32743, "en": 32742, "ım": 32741, "im": 32740, "um": 32739, "üm": 32738, "ız": 32737, "iz": 32736, "uz": 32735, "üz": 32734, "sı": 32733, "si": 32732, "su": 32731, "sü": 32730, "mış": 32729, "miş": 32728, "muş": 32727, "müş": 32726, "yı": 32725, "yi": 32724, "yu": 32723, "yü": 32722, "lı": 32721, "li": 32720, "lu": 32719, "lü": 32718, "sız": 32717, "siz": 32716, "suz": 32715, "süz": 32714, "ncı": 32713, "nci": 32712, "ncu": 32711, "ncü": 32710, "ın": 32709, "in": 32708, "un": 32707, "ün": 32706, "nın": 32705, "nin": 32704, "nun": 32703, "nün": 32702, "la": 32701, "le": 32700, "yla": 32699, "yle": 32698, "da": 32697, "de": 32696, "ta": 32695, "te": 32694, "dan": 32693, "den": 32692, "tan": 32691, "ten": 32690, "dı": 32689, "di": 32688, "du": 32687, "dü": 32686, "tı": 32685, "ti": 32684, "tu": 32683, "tü": 32682, "cı": 32681, "ci": 32680, "cu": 32679, "cü": 32678, "çı": 32677, "çi": 32676, "çu": 32675, "çü": 32674, "dır": 32673, "dir": 32672, "dur": 32671, "dür": 32670, "tır": 32669, "tir": 32668, "tur": 32667, "tür": 32666, "lık": 32665, "lik": 32664, "luk": 32663, "lük": 32662, "lığ": 32661, "liğ": 32660, "luğ": 32659, "lüğ": 32658, "cık": 32657, "cik": 32656, "cuk": 32655, "cük": 32654, "çık": 32653, "çik": 32652, "çuk": 32651, "çük": 32650, "cığ": 32649, "ciğ": 32648, "cuğ": 32647, "cüğ": 32646, "çığ": 32645, "çiğ": 32644, "çuğ": 32643, "çüğ": 32642, "mak": 32641, "mek": 32640, "may": 32639, "mey": 32638, "acak": 32637, "ecek": 32636, "acağ": 32635, "eceğ": 32634, "yacak": 32633, "yecek": 32632, "yacağ": 32631, "yeceğ": 32630, "i": 32629, "ı": 32628, "u": 32627, "ü": 32626, "a": 32625, "e": 32624, "m": 32623, "n": 32622, "yor": 32621, "ar": 32620, "er": 32619, "sa": 32618, "se": 32617, "r": 32616, "ce": 32615, "daş": 32614, "deş": 32613, "msı": 32612, "msi": 32611, "msu": 32610, "gil": 32609, "ımsa": 32608, "ıcık": 32607, "nç": 32606, "sal": 32605, "sel": 32604, "ki": 32603, "y": 32602, "idi": 32601, "imiş": 32600, "ise": 32599, "s": 32598, "gül": 32597, "kıl": 32596, "kil": 32595, "ka": 32594, "ge": 32593, "z": 32592, "lır": 32591, " doğrultu": 32768}